{
  "</s>": 0,
  "<unk>": 1,
  "\u2581de": 2,
  ",": 3,
  ".": 4,
  "\u2581la": 5,
  "s": 6,
  "\u2581en": 7,
  "'": 8,
  "\u2581que": 9,
  "\u2581a": 10,
  "\u2581y": 11,
  ";": 12,
  "\u2581et": 13,
  "\u2581el": 14,
  "\u2581l": 15,
  "\u2581des": 16,
  "\u2581&": 17,
  "\u2581les": 18,
  "\u2581\u00e0": 19,
  "\u2581le": 20,
  "\u2581los": 21,
  "apo": 22,
  "\u2581d": 23,
  "\u2581las": 24,
  "\u2581un": 25,
  "\u2581del": 26,
  "\u2581": 27,
  "\u2581du": 28,
  "\u2581se": 29,
  "\u2581(": 30,
  "\u2581-": 31,
  "-": 32,
  "\u2581para": 33,
  ")": 34,
  "\u2581con": 35,
  "\u2581pour": 36,
  "\u2581dans": 37,
  ":": 38,
  "\u2581por": 39,
  "\u2581no": 40,
  "\u2581au": 41,
  "\u2581sur": 42,
  "\u2581par": 43,
  "\u2581una": 44,
  "\u2581une": 45,
  "?": 46,
  "\u2581qui": 47,
  "\u2581est": 48,
  "\u2581La": 49,
  "a": 50,
  "\u2581al": 51,
  "\u2581su": 52,
  "\u2581pas": 53,
  "\u2581es": 54,
  "e": 55,
  "\u2581aux": 56,
  "\u2581\u00bf": 57,
  "\u2581En": 58,
  "\u2581A": 59,
  "\u2581o": 60,
  "\u2581sobre": 61,
  "\u2581El": 62,
  "n": 63,
  "/": 64,
  "\u2581\"": 65,
  "\u2581qu": 66,
  "\u2581Le": 67,
  "\u2581ce": 68,
  "\u2581lo": 69,
  "\u2581ne": 70,
  "r": 71,
  "\u2581ou": 72,
  "\u2581s": 73,
  "\u2581C": 74,
  "est": 75,
  "es": 76,
  "\u2581?": 77,
  "\u2581n": 78,
  "o": 79,
  "\u2581como": 80,
  "\u2581avec": 81,
  "\u2581plus": 82,
  "\u2581entre": 83,
  "\u2581sont": 84,
  "\u2581Je": 85,
  "\u2581L": 86,
  "\u2581son": 87,
  "\u2581il": 88,
  "y": 89,
  "\u2581ont": 90,
  "\u2581\u00e9t\u00e9": 91,
  "\u2581ha": 92,
  "\u2581m\u00e1s": 93,
  "\u2581vous": 94,
  "\u2581si": 95,
  "\u2581No": 96,
  "\u2581sus": 97,
  "\u2581Les": 98,
  "\u2581Il": 99,
  "\u2581Comit\u00e9": 100,
  "!": 101,
  "\u2581M": 102,
  "\u2581c": 103,
  "er": 104,
  "il": 105,
  "\u2581\u00eatre": 106,
  "\u2581bien": 107,
  "un": 108,
  "en": 109,
  "\u2581me": 110,
  "\u2581pays": 111,
  "A": 112,
  "\u2581je": 113,
  "\u2581sa": 114,
  "\u2581nous": 115,
  "),": 116,
  "t": 117,
  "\u2581D": 118,
  ").": 119,
  "\u2581S": 120,
  "\u25811": 121,
  "\u2581De": 122,
  "on": 123,
  "\u2581tu": 124,
  "\u2581e": 125,
  "\u2581the": 126,
  "\u2581Comisi\u00f3n": 127,
  "\u2581leur": 128,
  "la": 129,
  "d": 130,
  "\u2581Naciones": 131,
  "qu": 132,
  "\u00e9": 133,
  "\u2581Unidas": 134,
  "\u2581P": 135,
  "\u2581Estados": 136,
  "\u2581fait": 137,
  "\u2581ces": 138,
  "\u2581cette": 139,
  "\u2581J": 140,
  "ot": 141,
  "\u2581Si": 142,
  "S": 143,
  "\u2581droits": 144,
  "\u2581B": 145,
  "\u2581est\u00e1": 146,
  "\u2581p": 147,
  "\u2581d\u00e9veloppement": 148,
  "\u2581comme": 149,
  "C": 150,
  "do": 151,
  "\u2581\u00c9tats": 152,
  "ai": 153,
  "\u2581Commission": 154,
  "\u2581\u00a1": 155,
  "\u2581Se": 156,
  "\u2581Conseil": 157,
  "\u2581in": 158,
  "\u2581este": 159,
  "\u2581!": 160,
  "...": 161,
  "\"": 162,
  "le": 163,
  "\u2581b": 164,
  "\u2581Consejo": 165,
  "se": 166,
  "te": 167,
  "\u2581Nations": 168,
  "\u2581te": 169,
  "une": 170,
  "\u2581desarrollo": 171,
  "\u2581tambi\u00e9n": 172,
  "\u2581faire": 173,
  "\u2581ses": 174,
  "mos": 175,
  "\u2581I": 176,
  "\u2581pa\u00edses": 177,
  "\u2581Unies": 178,
  "\u2581General": 179,
  "\u2581Los": 180,
  "\u2581of": 181,
  "\u2581han": 182,
  "\u2581tout": 183,
  "\u2581O": 184,
  "h": 185,
  "\u2581non": 186,
  "de": 187,
  "\u2581tous": 188,
  "\u25812": 189,
  "\u2581esta": 190,
  "\u2581autres": 191,
  "\u2581mais": 192,
  "\u2581todos": 193,
  "\u2581derechos": 194,
  "da": 195,
  "\u2581E": 196,
  "\u2581rapport": 197,
  "\u2581T": 198,
  "\u2581peut": 199,
  "z": 200,
  "\u2581contra": 201,
  "\u2581informaci\u00f3n": 202,
  "\u2581ser": 203,
  "\u2581Tu": 204,
  "l": 205,
  "\u2581art\u00edculo": 206,
  "\u2581fin": 207,
  "\u2581mi": 208,
  "ez": 209,
  "\u2581Y": 210,
  "\u25813": 211,
  "\u2581parte": 212,
  "i": 213,
  "\u2581puede": 214,
  "\u2581re": 215,
  "\u2581ainsi": 216,
  "\u2581s\u00e9curit\u00e9": 217,
  "me": 218,
  "\u2581per\u00edodo": 219,
  "ment": 220,
  "\u2581leurs": 221,
  "\u2581contre": 222,
  "nt": 223,
  "\u25815": 224,
  "ce": 225,
  "\u2581\u00e9galement": 226,
  "\u2581droit": 227,
  "\u2581medidas": 228,
  "\u2581informe": 229,
  "ndo": 230,
  "ci": 231,
  "\u2581Por": 232,
  "\u2581travail": 233,
  "\u2581on": 234,
  "\u2581Es": 235,
  "\u2581m": 236,
  "\u00e1": 237,
  "\u2581todo": 238,
  "\u2581F": 239,
  "\u25814": 240,
  "\u2581Re": 241,
  "ant": 242,
  "\u2581mesures": 243,
  "lo": 244,
  "as": 245,
  "\u2581and": 246,
  "\u2581Un": 247,
  "\u2581membres": 248,
  "\u2581cas": 249,
  "c": 250,
  "\u2581V": 251,
  "\u2581nombre": 252,
  "\u2581as\u00ed": 253,
  "\u2581j": 254,
  "\u2581m\u00eame": 255,
  "\u2581va": 256,
  "\u2581Estado": 257,
  "\u2581base": 258,
  "\u2581.": 259,
  "\u2581pero": 260,
  "\u2581ni": 261,
  "\u2581\u00e7a": 262,
  "\u2581deux": 263,
  "ra": 264,
  "\u2581aussi": 265,
  ".\"": 266,
  "ba": 267,
  "\u2581On": 268,
  "\u2581g\u00e9n\u00e9ral": 269,
  "\u258110": 270,
  "CE": 271,
  "\u2581femmes": 272,
  "\u2581elle": 273,
  "\u2581Las": 274,
  "\u2581lui": 275,
  "\u2581sin": 276,
  "\u2581miembros": 277,
  "\u2581personas": 278,
  "re": 279,
  "m": 280,
  "\u2581tiene": 281,
  "\u2581internacional": 282,
  "\u25816": 283,
  "\u2581a\u00f1os": 284,
  "\u2581actividades": 285,
  "\u2581nos": 286,
  "ci\u00f3n": 287,
  "\u2581Al": 288,
  "\u2581programa": 289,
  "\u2581enfants": 290,
  "\u2581otros": 291,
  "\u2581Vous": 292,
  "\u2581derecho": 293,
  "ta": 294,
  "\u2581aplicaci\u00f3n": 295,
  "\u2581\u00e9tait": 296,
  "\u2581dont": 297,
  "\u2581dos": 298,
  "\u00f3": 299,
  "\u2581services": 300,
  "\u2581ma": 301,
  "\u2581personnes": 302,
  "\u2581trabajo": 303,
  "\u2581qu\u00e9": 304,
  "\u2581to": 305,
  "gt": 306,
  "\u2581Con": 307,
  "\u2581votre": 308,
  "\u2581sous": 309,
  "\u2581Et": 310,
  "\u2581sesiones": 311,
  "\u2581activit\u00e9s": 312,
  "\u2581H": 313,
  "mente": 314,
  "\u2581mon": 315,
  "\u2581resoluci\u00f3n": 316,
  "\u2581partie": 317,
  "\u2581humanos": 318,
  "\u2581sans": 319,
  "\u2581cuando": 320,
  "\u2581_": 321,
  "\u258115": 322,
  "\u2581r\u00e9solution": 323,
  "\u2581notamment": 324,
  "F": 325,
  "\u2581hacer": 326,
  "an": 327,
  "_": 328,
  "lt": 329,
  "\u2581Dans": 330,
  "\u2581DE": 331,
  "\u25817": 332,
  "\u2581mise": 333,
  "\u2581plan": 334,
  "\u2581paragraphe": 335,
  "ait": 336,
  "\u2581Nous": 337,
  "D": 338,
  "\u2581R": 339,
  "in": 340,
  "\u2581g\u00e9n\u00e9rale": 341,
  "\u2581vez": 342,
  "\u2581servicios": 343,
  "\u2581G": 344,
  "\u2581doit": 345,
  "\u2581toutes": 346,
  "\u2581concernant": 347,
  "L": 348,
  "\u2581Convention": 349,
  "\u2581Sr": 350,
  "\u2581social": 351,
  "ons": 352,
  "to": 353,
  "\u2581jour": 354,
  "\u2581sistema": 355,
  "\u2581o\u00f9": 356,
  "\u2581compte": 357,
  "\u2581internationale": 358,
  "\u2581projet": 359,
  "\u2581suis": 360,
  "\u2581t": 361,
  "\u2581seguridad": 362,
  "\u2581respecto": 363,
  "ou": 364,
  "\u2581ese": 365,
  "\u2581ya": 366,
  "muy": 367,
  "\u258130": 368,
  "\u2581cadre": 369,
  "\u2581todas": 370,
  "\u2581Asamblea": 371,
  "\u2581ni\u00f1os": 372,
  "\u2581soit": 373,
  "is": 374,
  "\u25818": 375,
  "\u2581homme": 376,
  "\u2581session": 377,
  "\u258118": 378,
  "Qu\u00e9": 379,
  "no": 380,
  "\u2581debe": 381,
  "article": 382,
  "\u2581point": 383,
  "\u2581proyecto": 384,
  "\u2581question": 385,
  "\u2581\u00c0": 386,
  "\u2581otras": 387,
  "b": 388,
  "\u258120": 389,
  "\u2581fue": 390,
  "p": 391,
  "\u2581Gobierno": 392,
  "\u2581examen": 393,
  "\u2581syst\u00e8me": 394,
  "\u2581ils": 395,
  "E": 396,
  "al": 397,
  "ing": 398,
  "\u2581avait": 399,
  "BAR": 400,
  "g": 401,
  "\u2581cada": 402,
  "\u2581cuenta": 403,
  "\u2581durante": 404,
  "\u2581[": 405,
  "\u2581international": 406,
  "\u2581r\u00e8glement": 407,
  "\u2581desde": 408,
  "\u2581K": 409,
  "\u2581Ce": 410,
  "\u2581apoyo": 411,
  "\u2581recursos": 412,
  "\u258112": 413,
  "\u2581programme": 414,
  "\u2581cours": 415,
  "\u2581dit": 416,
  "\u2581programas": 417,
  "\u2581N": 418,
  "\u2581politique": 419,
  "\u2581mati\u00e8re": 420,
  "res": 421,
  "\u2581questions": 422,
  "\u2581tiempo": 423,
  "\u2581pa\u00eds": 424,
  "\u2581presente": 425,
  "B": 426,
  "\u2581Elle": 427,
  "ar": 428,
  "\u2581afin": 429,
  "les": 430,
  "\u2581Pr\u00e9sident": 431,
  "\u2581particular": 432,
  "\u2581Secretario": 433,
  "\u2581forma": 434,
  "\u2581est\u00e1n": 435,
  "\u2581mujeres": 436,
  "\u2581Presidente": 437,
  "\u2581lugar": 438,
  "\u2581coop\u00e9ration": 439,
  "ed": 440,
  "\u25819": 441,
  "\u2581caso": 442,
  "\u2581hab\u00eda": 443,
  "\u2581protection": 444,
  "\u2581vie": 445,
  "\u2581Pour": 446,
  "\u2581Secr\u00e9taire": 447,
  "el": 448,
  "\u2581ressources": 449,
  "\u2581\u00c9tat": 450,
  "\u2581tr\u00e8s": 451,
  "\u2581ans": 452,
  "\u2581tanto": 453,
  "\u2581europ\u00e9enne": 454,
  "\u2581paix": 455,
  "\u2581\u00e9conomique": 456,
  "\u2581hasta": 457,
  "\u2581notre": 458,
  "\u2581Mais": 459,
  "\u00eda": 460,
  "\u2581niveau": 461,
  "elle": 462,
  "\u2581aqu\u00ed": 463,
  "\u2581programmes": 464,
  "\u2581politiques": 465,
  "\u2581situation": 466,
  "\u2581hay": 467,
  "\u2581nacional": 468,
  "\u2581era": 469,
  "\u2581S\u00ed": 470,
  "\u2581importante": 471,
  "\u2581pro": 472,
  "\u2581temps": 473,
  "\u2581Par": 474,
  "\u2581relaci\u00f3n": 475,
  "\u2581cet": 476,
  "\u2581Reglamento": 477,
  "\u2581situaci\u00f3n": 478,
  "\u258113": 479,
  "\u2581Lo": 480,
  "\u2581organizaciones": 481,
  "\u2581sido": 482,
  "\u2581Convenci\u00f3n": 483,
  "\u2581Rep\u00fablica": 484,
  "\u2581encore": 485,
  "\u2581d\u00e9cision": 486,
  "P": 487,
  "\u2581co": 488,
  "\u2581Me": 489,
  "\u2581vue": 490,
  "\u2581toute": 491,
  "\u2581moins": 492,
  "\u2581cooperaci\u00f3n": 493,
  "\u2581eso": 494,
  "\u2581Grupo": 495,
  "\u2581nivel": 496,
  "\u258111": 497,
  "\u2581esa": 498,
  "\u2581vida": 499,
  "\u2581loi": 500,
  "\u2581hecho": 501,
  "\u2581Uni\u00f3n": 502,
  "2": 503,
  "\u2581general": 504,
  "\u2581mis": 505,
  "\u258114": 506,
  "ca": 507,
  "os": 508,
  "\u2581apr\u00e8s": 509,
  "\u2581pueden": 510,
  "\u2581article": 511,
  "\u2581monde": 512,
  "\u2581peuvent": 513,
  "\u2581internacionales": 514,
  "\u258119": 515,
  "\u2581Des": 516,
  "\u00eatre": 517,
  "autres": 518,
  "\u2581personal": 519,
  "\u2581avoir": 520,
  "\u2581mal": 521,
  "\u2581asistencia": 522,
  "\u2581esto": 523,
  "\u2581sera": 524,
  "\u2581demande": 525,
  "\u00e0": 526,
  "\u2581acuerdo": 527,
  "di": 528,
  "\u2581\u0153uvre": 529,
  "\u2581autre": 530,
  "\u2581particulier": 531,
  "\u2581Au": 532,
  "\u2581moi": 533,
  "]": 534,
  "\u2581p\u00e1rrafo": 535,
  "\u2581pol\u00edtica": 536,
  "O": 537,
  "\u2581informations": 538,
  "\u258116": 539,
  "\u2581nacionales": 540,
  "ter": 541,
  "\u2581antes": 542,
  "\u2581Internacional": 543,
  "\u2581protecci\u00f3n": 544,
  "\u2581a\u00f1o": 545,
  "\u2581parties": 546,
  "\u2581total": 547,
  "\u2581donn\u00e9es": 548,
  "\u2581paz": 549,
  "\u2581proceso": 550,
  "\u2581In": 551,
  "\u2581sea": 552,
  "\u2581mismo": 553,
  "\u2581gestion": 554,
  "\u2581cuestiones": 555,
  "\u2581avant": 556,
  "\u2581conformidad": 557,
  "\u2581Gouvernement": 558,
  "tion": 559,
  "\u2581fois": 560,
  "\u2581R\u00e9publique": 561,
  "\u2581place": 562,
  "\u2581titre": 563,
  "\u2581inter": 564,
  "\u2581datos": 565,
  "\u2581Su": 566,
  "\u2581d\u00f3lares": 567,
  "\u2581s\u00f3lo": 568,
  "\u2581dispositions": 569,
  "que": 570,
  "\u2581ex": 571,
  "u": 572,
  "\u2581Pero": 573,
  "\u2581mayor": 574,
  "\u258131": 575,
  "\u2581sant\u00e9": 576,
  "\u2581prendre": 577,
  "\u2581Europea": 578,
  "H": 579,
  "\u2581mundo": 580,
  "\u2581di": 581,
  "\u2581Une": 582,
  "\u2581II": 583,
  "\u2581Ho": 584,
  "\u2581menos": 585,
  "\u258117": 586,
  "\u2581compris": 587,
  "\u2581produits": 588,
  "\u2581Groupe": 589,
  ",\"": 590,
  "man": 591,
  "\u2581hace": 592,
  "\u25811.": 593,
  "\u258122": 594,
  "\u2581conform\u00e9ment": 595,
  "\u2581Seguridad": 596,
  "\u2581organisations": 597,
  "\u2581doivent": 598,
  "T": 599,
  "ont": 600,
  "go": 601,
  "f": 602,
  "ver": 603,
  "\u2581f": 604,
  "\u2581Esta": 605,
  "\u258125": 606,
  "\u2581dollars": 607,
  "\u2581gran": 608,
  "tu": 609,
  "et": 610,
  ");": 611,
  "\u2581part": 612,
  "\u2581lieu": 613,
  "\u2581mediante": 614,
  "V": 615,
  "\u2581he": 616,
  "\u2581ver": 617,
  "\u2581formation": 618,
  "\u2581n\u00famero": 619,
  "dos": 620,
  "\u2581Conferencia": 621,
  "ais": 622,
  "\u2581mettre": 623,
  "ils": 624,
  "it": 625,
  "\u2581diciembre": 626,
  "us": 627,
  "\u2581car": 628,
  "\u2581Derechos": 629,
  "r\u00e9": 630,
  "ir": 631,
  "ur": 632,
  "\u2581marco": 633,
  "\u2581d\u00e9cembre": 634,
  "\u2581donc": 635,
  "\u2581condiciones": 636,
  "\u2581partir": 637,
  "\u2581uno": 638,
  "\u2581d\u00e9": 639,
  "\u2581Para": 640,
  "\u2581national": 641,
  "\u2581l\u00e0": 642,
  "\u2581application": 643,
  "\u2581Conf\u00e9rence": 644,
  "\u2581Tribunal": 645,
  "M": 646,
  "\u2581ayuda": 647,
  "\u2581yo": 648,
  "N": 649,
  "\u2581pr\u00e9sent": 650,
  "\u2581\u00e9l": 651,
  "\u2581tres": 652,
  "\u2581capacidad": 653,
  "\u2581manera": 654,
  "Union": 655,
  "\u2581salud": 656,
  "au": 657,
  "\u2581mujer": 658,
  "\u2581conditions": 659,
  "ne": 660,
  "\u2581cuesti\u00f3n": 661,
  "das": 662,
  "\u2581ahora": 663,
  "\u2581ici": 664,
  "\u2581otra": 665,
  "\u2581Bien": 666,
  "\u2581h": 667,
  "\u2581millones": 668,
  "\u2581medio": 669,
  "\u2581materia": 670,
  "\u2581productos": 671,
  "\u2581tipo": 672,
  "\u2581d\u00eda": 673,
  "\u2581personnel": 674,
  "co": 675,
  "\u2581pol\u00edticas": 676,
  "ma": 677,
  "\u2581Non": 678,
  "\u2581depuis": 679,
  "\u2581devrait": 680,
  "\u2581g": 681,
  "\u2581for": 682,
  "ga": 683,
  "\u2581sais": 684,
  "\u2581deben": 685,
  "\u2581Assembl\u00e9e": 686,
  "\u2581p\u00e9riode": 687,
  "\u2581concerne": 688,
  "\u258121": 689,
  "dd": 690,
  "k": 691,
  "homme": 692,
  "v": 693,
  "\u2581Ils": 694,
  "\u2581tant": 695,
  "\u2581decisi\u00f3n": 696,
  "\u25812.": 697,
  "\u2581domaine": 698,
  "\u258124": 699,
  "na": 700,
  "\u2581algo": 701,
  "ent": 702,
  "\u2581processus": 703,
  "\u2581partes": 704,
  "\u2581Co": 705,
  "\u2581dire": 706,
  "\u2581trois": 707,
  "ban": 708,
  "\u2581tienen": 709,
  "ho": 710,
  "\u2581otro": 711,
  "\u2581mejor": 712,
  "ciones": 713,
  "\u2581disposiciones": 714,
  "\u2581ci": 715,
  "\u2581nuevo": 716,
  "\u2581chaque": 717,
  "\u2581esos": 718,
  "\u2581despu\u00e9s": 719,
  "ly": 720,
  "\u2581ceux": 721,
  "\u2581armas": 722,
  "\u2581Sin": 723,
  "\u2581estos": 724,
  "ja": 725,
  "\u2581embargo": 726,
  "\u2581Que": 727,
  "\u2581casos": 728,
  "\u2581W": 729,
  "\u2581grande": 730,
  "\u2581decir": 731,
  "vous": 732,
  "w": 733,
  "\u2581Adem\u00e1s": 734,
  "\u2581contr\u00f4le": 735,
  "\u2581faut": 736,
  "\u2581apartado": 737,
  "\u2581ejemplo": 738,
  "\u2581toujours": 739,
  "\u00b0": 740,
  "\u2581posible": 741,
  "\u2581mani\u00e8re": 742,
  "6": 743,
  "\u2581efforts": 744,
  "\u2581Mi": 745,
  "\u2581Oui": 746,
  "\u2581Desarrollo": 747,
  "\u2581porque": 748,
  "\u2581w": 749,
  "\u2581Cette": 750,
  "\u00e9e": 751,
  "Y": 752,
  "ie": 753,
  "\u2581eu": 754,
  "ron": 755,
  "\u2581normas": 756,
  "\u2581Esto": 757,
  "\u2581travaux": 758,
  "nte": 759,
  "\u2581certains": 760,
  "par": 761,
  "\u2581tener": 762,
  "\u2581favor": 763,
  "\u2581gesti\u00f3n": 764,
  "\u2581casa": 765,
  "\u2581pendant": 766,
  "je": 767,
  "\u2581atenci\u00f3n": 768,
  "\u2581acceso": 769,
  "\u2581nom": 770,
  "\u2581Dios": 771,
  "\u2581Oficina": 772,
  "UE": 773,
  "\u2581ante": 774,
  "\u2581Ma": 775,
  "\u2581secteur": 776,
  "\u2581veux": 777,
  "\u2581sociales": 778,
  "\u2581Organisation": 779,
  "\u2581mesure": 780,
  "\u2581toda": 781,
  "\u258128": 782,
  "No": 783,
  "\u2581savoir": 784,
  "\u2581ellos": 785,
  "\u2581march\u00e9": 786,
  "\u2581d\u00e9j\u00e0": 787,
  "mo": 788,
  "\u2581\u00e9taient": 789,
  "\u2581informes": 790,
  "\u2581Especial": 791,
  "los": 792,
  "R": 793,
  "\u2581premier": 794,
  "\u2581sector": 795,
  "\u2581besoin": 796,
  "or": 797,
  "\u2581cualquier": 798,
  "\u2581personne": 799,
  "aient": 800,
  "\u2581objectifs": 801,
  "\u2581selon": 802,
  "\u2581sp\u00e9cial": 803,
  "\u2581LA": 804,
  "\u258126": 805,
  "be": 806,
  "\u2581voir": 807,
  "\u2581relatives": 808,
  "\u2581nouveau": 809,
  "\u258127": 810,
  "\u2581soci\u00e9t\u00e9": 811,
  "\u2581lors": 812,
  "\u2581groupe": 813,
  "\u2581per": 814,
  "\u258123": 815,
  "\u2581Programa": 816,
  "\u00e9tait": 817,
  "\u2581i": 818,
  "\u2581projets": 819,
  "\u2581outre": 820,
  "\u2581esas": 821,
  "\u2581ta": 822,
  "\u2581junio": 823,
  "\u2581r\u00f4le": 824,
  "\u2581educaci\u00f3n": 825,
  "\u2581problemas": 826,
  "\u00e1n": 827,
  "\u2581jusqu": 828,
  "\u2581elles": 829,
  "\u2581affaires": 830,
  "\u2581...": 831,
  "\u2581action": 832,
  "\u2581Ces": 833,
  "\u2581peu": 834,
  "\u2581tan": 835,
  "\u25812004": 836,
  "NU": 837,
  "\u2581juin": 838,
  "\u2581soient": 839,
  "\u2581estas": 840,
  "\u2581rapports": 841,
  "\u2581uso": 842,
  "\u2581Tambi\u00e9n": 843,
  "\u2581mucho": 844,
  "\u2581participaci\u00f3n": 845,
  "\u00c7": 846,
  "\u2581ONU": 847,
  "\u2581mois": 848,
  "\u2581mes": 849,
  "\u00c9tat": 850,
  "\u2581objetivos": 851,
  "\u2581pertinentes": 852,
  "\u2581proyectos": 853,
  "\u2581Dieu": 854,
  "\u2581visant": 855,
  "\u2581premi\u00e8re": 856,
  "\u2581especial": 857,
  "\u2581resultados": 858,
  "\u2581algunos": 859,
  "\u2581nationale": 860,
  "\u2581labor": 861,
  "\u2581UN": 862,
  "\u2581usted": 863,
  "\u2581fa\u00e7on": 864,
  "\u2581tal": 865,
  "\u2581civil": 866,
  "1": 867,
  "3": 868,
  "ad": 869,
  "ation": 870,
  "\u2581institutions": 871,
  "\u2581estaba": 872,
  "\u2581plusieurs": 873,
  "\u2581momento": 874,
  "\u2581anexo": 875,
  "\u2581final": 876,
  "\u2581dis": 877,
  "\u2581probl\u00e8mes": 878,
  "\u25812005": 879,
  "\u2581pris": 880,
  "\u2581millions": 881,
  "\u2581exemple": 882,
  "\u00e9s": 883,
  "\u2581pr\u00e9sente": 884,
  "\u2581locales": 885,
  "\u2581d\u00edas": 886,
  "\u2581Ha": 887,
  "\u2581tema": 888,
  "\u2581internationales": 889,
  "\u2581grupos": 890,
  "ste": 891,
  "\u2581bon": 892,
  "\u2581Este": 893,
  "\u2581avez": 894,
  "\u2581aide": 895,
  "\u25812006": 896,
  "\u2581armes": 897,
  "\u25812000": 898,
  "\u2581r\u00e9sultats": 899,
  "\u2581ann\u00e9es": 900,
  "\u2581Humanos": 901,
  "\u2581laquelle": 902,
  "\u2581Te": 903,
  "\u2581cela": 904,
  "\u2581ley": 905,
  "\u2581Ley": 906,
  "\u2581instituciones": 907,
  "\u2581principales": 908,
  "\u2581arreglo": 909,
  "\u2581haber": 910,
  "\u2581reuni\u00f3n": 911,
  "\u2581\u00e9gard": 912,
  "\u2581ser\u00e1": 913,
  "CEE": 914,
  "\u2581Qu": 915,
  "\u2581grupo": 916,
  "\u2581Sa": 917,
  "\u2581quoi": 918,
  "\u2581autorit\u00e9s": 919,
  "\u2581vers": 920,
  "\u2581autoridades": 921,
  "\u2581esfuerzos": 922,
  "\u2581suite": 923,
  "\u2581haya": 924,
  "ia": 925,
  "\u2581toi": 926,
  "\u2581rien": 927,
  "\u2581fecha": 928,
  "\u2581population": 929,
  "\u2581punto": 930,
  "\u2581possible": 931,
  "\u2581avons": 932,
  "\u25813.": 933,
  "\u2581horas": 934,
  "\u2581control": 935,
  "G": 936,
  "K": 937,
  "\u2581vu": 938,
  "\u2581solo": 939,
  "\u2581cosas": 940,
  "\u2581groupes": 941,
  "\u2581Ne": 942,
  "\u2581necesario": 943,
  "miento": 944,
  "\u2581chose": 945,
  "\u2581mercado": 946,
  "th": 947,
  "\u2581persona": 948,
  "\u2581renforcer": 949,
  "\u2581Unidos": 950,
  "\u2581Parlamento": 951,
  "\u2581raison": 952,
  "\u2581The": 953,
  "\u2581ayant": 954,
  "\u2581siguiente": 955,
  "\u2581recherche": 956,
  "\u2581lutte": 957,
  "x": 958,
  "W": 959,
  "\u2581Mar": 960,
  "\u2581justice": 961,
  "\u2581s\u00ed": 962,
  "\u25812002": 963,
  "im": 964,
  "\u2581poblaci\u00f3n": 965,
  "\u2581europ\u00e9en": 966,
  "I": 967,
  "\u2581primer": 968,
  "\u2581estado": 969,
  "\u2581quand": 970,
  "tor": 971,
  "\u2581proc\u00e9dure": 972,
  "\u2581Una": 973,
  "accord": 974,
  "\u2581Organizaci\u00f3n": 975,
  "\u2581Partes": 976,
  "\u2581grand": 977,
  "\u2581r\u00e9gion": 978,
  "\u2581importancia": 979,
  "\u2581ella": 980,
  "\u2581alors": 981,
  "\u2581Bureau": 982,
  "\u2581necesidad": 983,
  "\u00ed": 984,
  "moi": 985,
  "\u2581siguientes": 986,
  "\u2581cual": 987,
  "\u2581assurer": 988,
  "ti": 989,
  "\u25811,": 990,
  "\u2581pu": 991,
  "\u2581importantes": 992,
  "\u2581peux": 993,
  "\u2581investigaci\u00f3n": 994,
  "\u2581celui": 995,
  "\u2581nada": 996,
  "\u2581nuestro": 997,
  "\u2581necesidades": 998,
  "\u2581serait": 999,
  "\u2581donde": 1000,
  "art": 1001,
  "\u2581julio": 1002,
  "con": 1003,
  "\u2581gastos": 1004,
  "\u2581Programme": 1005,
  "\u2581effet": 1006,
  "\u2581moyens": 1007,
  "t\u00e9": 1008,
  "\u2581jamais": 1009,
  "\u2581Como": 1010,
  "\u2581empresas": 1011,
  "\u2581montant": 1012,
  "\u2581beaucoup": 1013,
  "\u2581primera": 1014,
  "\u2581libre": 1015,
  "\u2581Parlement": 1016,
  "\u2581famille": 1017,
  "ine": 1018,
  "\u2581Mundial": 1019,
  "ro": 1020,
  "\u2581mondiale": 1021,
  "\u2581plazo": 1022,
  "r\u00eda": 1023,
  "\u2581siempre": 1024,
  "\u25812007": 1025,
  "\u2581juillet": 1026,
  "\u2581mejorar": 1027,
  "tar": 1028,
  "\u25812008": 1029,
  "\u2581qualit\u00e9": 1030,
  "\u2581documento": 1031,
  "\u2581seg\u00fan": 1032,
  "qui": 1033,
  "\u2581deber\u00eda": 1034,
  "\u2581recommandations": 1035,
  "\u2581nuestra": 1036,
  "\u2581trata": 1037,
  "\u2581technique": 1038,
  "age": 1039,
  "\u2581violencia": 1040,
  "\u2581juste": 1041,
  "\u2581dentro": 1042,
  "\u2581organismes": 1043,
  "\u2581grandes": 1044,
  "ut": 1045,
  "\u2581comunidad": 1046,
  "\u2581recomendaciones": 1047,
  "\u2581Vi": 1048,
  "\u258129": 1049,
  "nos": 1050,
  "mi": 1051,
  "\u2581nouvelle": 1052,
  "Por": 1053,
  "Unis": 1054,
  "\u2581podr\u00eda": 1055,
  "\u2581\u00c9": 1056,
  "\u2581information": 1057,
  "\u2581ordre": 1058,
  "\u2581document": 1059,
  "\u2581objetivo": 1060,
  "\u2581seulement": 1061,
  "\u2581responsabilidad": 1062,
  "\u2581n\u00e9cessaires": 1063,
  "ex": 1064,
  "\u2581evaluaci\u00f3n": 1065,
  "\u25812,": 1066,
  "\u2581estar": 1067,
  "\u2581s\u00e9": 1068,
  "\u2581fonds": 1069,
  "\u2581Comunidad": 1070,
  "\u2581calidad": 1071,
  "\u2581/": 1072,
  "\u2581Europa": 1073,
  "\u2581efectos": 1074,
  "\u2581virtud": 1075,
  "\u2581taux": 1076,
  "\u2581sociedad": 1077,
  "\u2581probl\u00e8me": 1078,
  "\u2581dice": 1079,
  "\u2581pourrait": 1080,
  "\u2581nouvelles": 1081,
  "\u2581mieux": 1082,
  "\u2581budget": 1083,
  "\u2581sesi\u00f3n": 1084,
  "\u2581Yo": 1085,
  "pe": 1086,
  "\u2581sociale": 1087,
  "\u2581appui": 1088,
  "\u2581op\u00e9rations": 1089,
  "\u258150": 1090,
  "\u2581service": 1091,
  "\u2581public": 1092,
  "\u2581date": 1093,
  "\u2581femme": 1094,
  "\u2581be": 1095,
  "\u2581note": 1096,
  "\u2581discrimination": 1097,
  "\u2581prix": 1098,
  "\u2581000": 1099,
  "\u2581r\u00e9": 1100,
  "\u2581dar": 1101,
  "pa": 1102,
  "\u2581n\u00e9cessaire": 1103,
  "application": 1104,
  "\u2581He": 1105,
  "\u2581avaient": 1106,
  "\u2581Car": 1107,
  "\u2581moment": 1108,
  "\u2581sujet": 1109,
  "\u2022": 1110,
  "able": 1111,
  "tel": 1112,
  "\u2581Article": 1113,
  "\u2581ello": 1114,
  "\u2581participation": 1115,
  "\u2581principal": 1116,
  "ve": 1117,
  "\u2581entreprises": 1118,
  "\u2581vos": 1119,
  "\u2581regi\u00f3n": 1120,
  "\u2581tenu": 1121,
  "\u2581ensemble": 1122,
  "\u25812003": 1123,
  "\u2581Art\u00edculo": 1124,
  "\u2581Communaut\u00e9": 1125,
  "\u2581maintenant": 1126,
  "\u2581medida": 1127,
  "\u2581objeto": 1128,
  "\u2581membre": 1129,
  "\u2581local": 1130,
  "\u2581police": 1131,
  "\u2581relativas": 1132,
  "\u2581Europeo": 1133,
  "\u2581octubre": 1134,
  "\u2581violence": 1135,
  "\u2581fuera": 1136,
  "\u2581medios": 1137,
  "\u2581seront": 1138,
  "\u2581communaut\u00e9": 1139,
  "\u2581ton": 1140,
  "\u2581besoins": 1141,
  "\u2581U": 1142,
  "\u2581nationales": 1143,
  "\u2581Ex": 1144,
  "\u2581existe": 1145,
  "\u2581sino": 1146,
  "\u2581problema": 1147,
  "\u2581relative": 1148,
  "si": 1149,
  "\u2581D\u00e9": 1150,
  "\u2581regionales": 1151,
  "\u2581Ra": 1152,
  "\u2581prises": 1153,
  "\u2581organizaci\u00f3n": 1154,
  "\u2581noviembre": 1155,
  "):": 1156,
  "las": 1157,
  "\u2581ir": 1158,
  "hui": 1159,
  "\u2581novembre": 1160,
  "\u2581Pro": 1161,
  "\u2581mundial": 1162,
  "ya": 1163,
  "nal": 1164,
  "eau": 1165,
  "\u2581type": 1166,
  "\u2581hommes": 1167,
  "\u2581ejecuci\u00f3n": 1168,
  "ch": 1169,
  "\u2581r\u00e9union": 1170,
  "\u2581quelque": 1171,
  "Assembl\u00e9e": 1172,
  "\u2581bajo": 1173,
  "\u2581vais": 1174,
  "\u2581Bueno": 1175,
  "\u2581important": 1176,
  "\u2581donner": 1177,
  "\u2581ti": 1178,
  "\u2581cabo": 1179,
  "\u2581\u00e9conomiques": 1180,
  "\u00fa": 1181,
  "\u2581septiembre": 1182,
  "\u2581Cour": 1183,
  "\u2581garantizar": 1184,
  "por": 1185,
  "\u2581\u00c1frica": 1186,
  "\u2581septembre": 1187,
  "tra": 1188,
  "\u2581octobre": 1189,
  "\u2581Miembros": 1190,
  "\u2581Plan": 1191,
  "\u2581cr\u00e9ation": 1192,
  "\u2581pouvoir": 1193,
  "\u2581presupuesto": 1194,
  "\u2581especialmente": 1195,
  "\u2581jours": 1196,
  "ge": 1197,
  "\u2581mai": 1198,
  "\u2581acci\u00f3n": 1199,
  "\u2581zonas": 1200,
  "\u2581financement": 1201,
  "\u2581domaines": 1202,
  "\u2581s\u00e9ance": 1203,
  "\u2581certaines": 1204,
  "ha": 1205,
  "\u2581CE": 1206,
  "at": 1207,
  "\u2581moyen": 1208,
  "ol": 1209,
  "\u2581durable": 1210,
  "\u2581organismos": 1211,
  "sa": 1212,
  "\u2581dicho": 1213,
  "\u2581Trabajo": 1214,
  "\u2581d\u00e9penses": 1215,
  "\u2581Ro": 1216,
  "\u2581muchos": 1217,
  "\u2581lucha": 1218,
  "\u2581empleo": 1219,
  "\u2581devraient": 1220,
  "\u2581III": 1221,
  "\u2581correspondiente": 1222,
  "\u2581progr\u00e8s": 1223,
  "cu": 1224,
  "\u2581promover": 1225,
  "\u2581mar": 1226,
  "ten": 1227,
  "\u2581hab\u00edan": 1228,
  "\u2581donn\u00e9": 1229,
  "\u2581enero": 1230,
  "\u2581traitement": 1231,
  "\u2581production": 1232,
  "aide": 1233,
  "\u2581Sur": 1234,
  "\u2581acerca": 1235,
  "\u2581celle": 1236,
  "\u2581terme": 1237,
  "pos": 1238,
  "\u2581marzo": 1239,
  "\u2581mars": 1240,
  "\u2581cuanto": 1241,
  "\u2581chez": 1242,
  "\u2581mayo": 1243,
  "\u2581Parte": 1244,
  "\u2581devant": 1245,
  "\u2581miembro": 1246,
  "\u2581coordination": 1247,
  "che": 1248,
  "\u2581nota": 1249,
  "\u2581decisiones": 1250,
  "\u2581disponibles": 1251,
  "\u2581Comme": 1252,
  "\u2581sommes": 1253,
  "va": 1254,
  "\u2581faveur": 1255,
  "\u2581An": 1256,
  "\u2581Tratado": 1257,
  "\u2581VIH": 1258,
  "\u2581directive": 1259,
  "\u2581cambio": 1260,
  "\u2581poco": 1261,
  "\u2581Est\u00e1": 1262,
  "\u25812001": 1263,
  "\u2581respect": 1264,
  "\u2581janvier": 1265,
  "\u2581mondial": 1266,
  "ck": 1267,
  "\u2581hacia": 1268,
  "\u2581operaciones": 1269,
  "4": 1270,
  "\u25814.": 1271,
  "\u2581Social": 1272,
  "\u2581Membres": 1273,
  "\u2581poder": 1274,
  "\u2581commerce": 1275,
  "\u2581formaci\u00f3n": 1276,
  "id": 1277,
  "\u2581hombre": 1278,
  "\u2581Mon": 1279,
  "\u2581nuevas": 1280,
  "tan": 1281,
  "\u2581financiaci\u00f3n": 1282,
  "\u2581Pas": 1283,
  "\u2581propuesta": 1284,
  "ina": 1285,
  "\u2581quiere": 1286,
  "\u2581discriminaci\u00f3n": 1287,
  "\u2581ann\u00e9e": 1288,
  "dor": 1289,
  "der": 1290,
  "\u2581ca": 1291,
  "r\u00e1": 1292,
  "\u2581acc\u00e8s": 1293,
  "\u2581agua": 1294,
  "tas": 1295,
  "\u2581creaci\u00f3n": 1296,
  "\u2581Cuando": 1297,
  "\u2581Na": 1298,
  "\u2581heures": 1299,
  "jo": 1300,
  "bo": 1301,
  "\u2581funci\u00f3n": 1302,
  "\u2581mort": 1303,
  "ces": 1304,
  "\u2581Fonds": 1305,
  "\u2581estoy": 1306,
  "\u2581As\u00ed": 1307,
  "\u2581principios": 1308,
  "\u2581repr\u00e9sentants": 1309,
  "\u2581capacit\u00e9s": 1310,
  "idad": 1311,
  "\u2581nueva": 1312,
  "\u2581legislaci\u00f3n": 1313,
  "information": 1314,
  "\u2581\u00eates": 1315,
  "io": 1316,
  "J": 1317,
  "\u2581fondos": 1318,
  "\u2581mandat": 1319,
  "\u2581gouvernement": 1320,
  "\u2581\u00f3rganos": 1321,
  "\u2581suivi": 1322,
  "action": 1323,
  "per": 1324,
  "\u2581d\u00e9cisions": 1325,
  "\u2581reste": 1326,
  "\u2581pr\u00e1ctica": 1327,
  "\u2581producci\u00f3n": 1328,
  ".1": 1329,
  "\u2581Pourquoi": 1330,
  "\u2581relativa": 1331,
  "\u2581Eso": 1332,
  "\u2581quelques": 1333,
  "\u2581Comment": 1334,
  "ES": 1335,
  "\u2581abril": 1336,
  "\u2581promouvoir": 1337,
  "\u2581Dis": 1338,
  "\u00e1r": 1339,
  "\u2581g\u00e9nero": 1340,
  "\u2581mer": 1341,
  "\u2581promotion": 1342,
  "\u2581a\u00fan": 1343,
  "\u2581vi": 1344,
  "\u2581Di": 1345,
  "\u2581modo": 1346,
  "\u2581Ni": 1347,
  "\u2581polic\u00eda": 1348,
  "\u2581lograr": 1349,
  "\u2581c\u00f3mo": 1350,
  "\u2581York": 1351,
  "\u258140": 1352,
  "vi": 1353,
  "voir": 1354,
  "\u2581nosotros": 1355,
  "\u2581familia": 1356,
  "\u2581p\u00fablico": 1357,
  "\u2581accord": 1358,
  "\u2581papel": 1359,
  "\u2581sub": 1360,
  "\u2581Mme": 1361,
  "\u2581servicio": 1362,
  "\u2581sein": 1363,
  "\u2581nouveaux": 1364,
  "\u2581principes": 1365,
  "\u2581adopt\u00e9": 1366,
  "\u2581valor": 1367,
  "\u2581sens": 1368,
  "\u2581\u00e9tant": 1369,
  "\u2581jeunes": 1370,
  "\u2581Afrique": 1371,
  "\u2581forme": 1372,
  "\u2581enfant": 1373,
  "\u2581victimes": 1374,
  "\u2581internationaux": 1375,
  "\u2581am\u00e9liorer": 1376,
  "tal": 1377,
  "\u2581equipo": 1378,
  "\u2581Tout": 1379,
  "ton": 1380,
  "\u2581Fondo": 1381,
  "\u2581procedimiento": 1382,
  "\u2581aumento": 1383,
  "\u2581sistemas": 1384,
  "\u2581vertu": 1385,
  "\u2581\u00e9l\u00e9ments": 1386,
  "\u2581establecimiento": 1387,
  "\u2581puedo": 1388,
  "\u2581sigue": 1389,
  "\u2581Junta": 1390,
  "\u2581mantenimiento": 1391,
  "\u2581avril": 1392,
  "ke": 1393,
  "\u2581maintien": 1394,
  "\u2581sentido": 1395,
  "\u2581fins": 1396,
  "\u2581100": 1397,
  "\u2581Nacional": 1398,
  "\u2581lista": 1399,
  "\u2581procedimientos": 1400,
  "\u2581noche": 1401,
  "\u2581tra": 1402,
  "\u2581r\u00e8gles": 1403,
  "Organisation": 1404,
  "um": 1405,
  "\u2581falta": 1406,
  "\u2581assistance": 1407,
  "\u2581pr\u00e9vention": 1408,
  "\u2581com\u00fan": 1409,
  "com": 1410,
  "\u2581algunas": 1411,
  "\u2581proc\u00e9dures": 1412,
  "\u2581respuesta": 1413,
  "\u2581nuevos": 1414,
  "ry": 1415,
  "\u2581San": 1416,
  "ka": 1417,
  "\u2581dijo": 1418,
  "\u2581Parties": 1419,
  "\u2581incluso": 1420,
  "\u2581trav\u00e9s": 1421,
  "\u2581territoire": 1422,
  "\u2581Ya": 1423,
  "En": 1424,
  "des": 1425,
  "am": 1426,
  "\u2581libertad": 1427,
  "\u2581deuxi\u00e8me": 1428,
  "\u2581an": 1429,
  "\u2581Sal": 1430,
  "\u2581normes": 1431,
  "\u2581parce": 1432,
  "\u2581texte": 1433,
  "\u2581dem\u00e1s": 1434,
  "can": 1435,
  "\u2581orden": 1436,
  "\u2581vol": 1437,
  "\u2581bonne": 1438,
  "\u00c3": 1439,
  "\u2581renforcement": 1440,
  "rie": 1441,
  "\u2581pratiques": 1442,
  "\u2581mayor\u00eda": 1443,
  "\u2581misma": 1444,
  "gar": 1445,
  "\u2581organes": 1446,
  "\u2581trait\u00e9": 1447,
  "\u2581zona": 1448,
  "\u2581segundo": 1449,
  "apr\u00e8s": 1450,
  "\u2581principio": 1451,
  "ante": 1452,
  "\u2581produit": 1453,
  "ul": 1454,
  "autre": 1455,
  "\u25815.": 1456,
  "tri": 1457,
  "\u2581pense": 1458,
  "\u2581anti": 1459,
  "j": 1460,
  "\u2581pr\u00e1cticas": 1461,
  "\u2581l\u00e9gislation": 1462,
  "CN": 1463,
  "\u2581tengo": 1464,
  "\u2581celles": 1465,
  "\u2581techniques": 1466,
  "\u2581funcionarios": 1467,
  "\u2581m\u00ed": 1468,
  "\u2581meses": 1469,
  "\u2581commun": 1470,
  "\u2581All": 1471,
  "\u2581establecer": 1472,
  "\u2581eux": 1473,
  "\u2581frente": 1474,
  "\u2581pauvret\u00e9": 1475,
  "\u2581repr\u00e9sentant": 1476,
  "\u2581\u00e9tat": 1477,
  "\u25812010": 1478,
  "\u2581Sud": 1479,
  "\u2581hombres": 1480,
  "\u2581pobreza": 1481,
  "\u2581igualdad": 1482,
  "\u2581comercio": 1483,
  "\u25811999": 1484,
  "\u2581d\u00e9claration": 1485,
  "\u2581responsables": 1486,
  "\u2581Iraq": 1487,
  "\u2581Protocolo": 1488,
  "\u2581declaraci\u00f3n": 1489,
  "\u258160": 1490,
  "\u2581vigueur": 1491,
  "\u2581representantes": 1492,
  "\u2581zones": 1493,
  "\u2581reuniones": 1494,
  "\u2581maison": 1495,
  "\u2581Ministerio": 1496,
  "\u2581aupr\u00e8s": 1497,
  "\u2581pueda": 1498,
  "\u2581t\u00fa": 1499,
  "\u2581u": 1500,
  "\u2581gubernamentales": 1501,
  "\u2581adem\u00e1s": 1502,
  "\u2581pouvez": 1503,
  "\u2581mandato": 1504,
  "aux": 1505,
  "za": 1506,
  "\u2581soutien": 1507,
  "ble": 1508,
  "\u2581regional": 1509,
  "\u2581fueron": 1510,
  "\u2581largo": 1511,
  "\u2581syst\u00e8mes": 1512,
  "\u2581d\u00e9l\u00e9gation": 1513,
  "\u2581\u00e9ducation": 1514,
  "\u2581ambiente": 1515,
  "\u2581inter\u00e9s": 1516,
  "\u2581demand\u00e9": 1517,
  "\u2581Asunto": 1518,
  "\u2581p\u00fablica": 1519,
  "\u25812009": 1520,
  "\u2581documents": 1521,
  "\u2581aider": 1522,
  "ado": 1523,
  "\u2581\u00faltimo": 1524,
  "\u2581aucune": 1525,
  "\u2581graves": 1526,
  "\u2581civile": 1527,
  "\u2581podr\u00e1": 1528,
  "\u2581Sra": 1529,
  "\u2581saber": 1530,
  "\u2581Qui": 1531,
  "\u2581liste": 1532,
  "\u2581Rapport": 1533,
  "\u2581nationaux": 1534,
  "sion": 1535,
  "\u2581communication": 1536,
  "\u2581r\u00e9gions": 1537,
  "\u2581Directiva": 1538,
  "\u2581coordinaci\u00f3n": 1539,
  "\u2581car\u00e1cter": 1540,
  "\u2581art\u00edculos": 1541,
  "UD": 1542,
  "\u2581proposition": 1543,
  "nes": 1544,
  "\u2581delegaci\u00f3n": 1545,
  "\u2581fournir": 1546,
  "ab": 1547,
  "\u2581pre": 1548,
  "\u2581pourquoi": 1549,
  "\u2581unos": 1550,
  "rait": 1551,
  "\u25813,": 1552,
  "\u2581quiero": 1553,
  "bi": 1554,
  "\u2581econ\u00f3mica": 1555,
  "\u2581siendo": 1556,
  "\u2581comunicaci\u00f3n": 1557,
  "\u2581vraiment": 1558,
  "\u2581aplicar": 1559,
  "\u2581cumplimiento": 1560,
  "\u2581Nueva": 1561,
  "\u2581Ca": 1562,
  "\u2581gobiernos": 1563,
  "\u2581sabe": 1564,
  "\u2581trop": 1565,
  "du": 1566,
  "tes": 1567,
  "\u2581\u00e1mbito": 1568,
  "\u2581contexto": 1569,
  "\u2581cuatro": 1570,
  "\u2581Ja": 1571,
  "\u2581nucl\u00e9aires": 1572,
  "\u2581cause": 1573,
  "\u2581efecto": 1574,
  "\u2581seguir": 1575,
  "\u2581edad": 1576,
  "\u2581comment": 1577,
  "\u2581nucleares": 1578,
  "\u2581publique": 1579,
  "\u2581that": 1580,
  "\u2581principe": 1581,
  "\u2581site": 1582,
  "\u2581documentos": 1583,
  "\u2581prise": 1584,
  "C\u00f3mo": 1585,
  "\u2581Se\u00f1or": 1586,
  "\u2581nombreux": 1587,
  "\u2581actual": 1588,
  "\u2581lorsque": 1589,
  "\u2581ni\u00f1o": 1590,
  "\u2581Gracias": 1591,
  "ted": 1592,
  "\u2581texto": 1593,
  "\u2581justicia": 1594,
  "\u2581quatre": 1595,
  "\u2581n\u00e9cessit\u00e9": 1596,
  "\u2581responsabilit\u00e9": 1597,
  "\u2581pueblo": 1598,
  "em": 1599,
  "De": 1600,
  "\u2581dernier": 1601,
  "\u2581font": 1602,
  "\u2581tels": 1603,
  "\u2581exercice": 1604,
  "\u2581gouvernements": 1605,
  "ordre": 1606,
  "\u2581diff\u00e9rents": 1607,
  "\u2581t\u00e9cnica": 1608,
  "\u2581Minist\u00e8re": 1609,
  "ner": 1610,
  "cul": 1611,
  "La": 1612,
  "\u2581r": 1613,
  "\u2581referencia": 1614,
  "ty": 1615,
  "\u25810": 1616,
  "\u2581environnement": 1617,
  "\u2581adoptar": 1618,
  "\u2581posibilidad": 1619,
  "elles": 1620,
  "\u2581puesto": 1621,
  "\u2581v\u00edctimas": 1622,
  "ria": 1623,
  "ida": 1624,
  "\u2581sean": 1625,
  "\u2581haut": 1626,
  "\u2581cinq": 1627,
  "\u2581varios": 1628,
  "\u2581juridique": 1629,
  "\u2581r\u00e9unions": 1630,
  "\u2581valeur": 1631,
  "\u2581trouver": 1632,
  "\u2581econ\u00f3mico": 1633,
  "\u2581*": 1634,
  "\u2581formas": 1635,
  "\u2581long": 1636,
  "\u00c9": 1637,
  ".000": 1638,
  "\u2581.\"": 1639,
  "\u2581examinar": 1640,
  "\u2581points": 1641,
  "ux": 1642,
  "\u2581transporte": 1643,
  "\u2581libert\u00e9": 1644,
  "\u2581promoci\u00f3n": 1645,
  "\u2581cinco": 1646,
  "\u2581hoy": 1647,
  "aire": 1648,
  "\u2581Mission": 1649,
  "\u2581permettre": 1650,
  "\u2581aujourd": 1651,
  "\u2581mientras": 1652,
  "\u2581fonction": 1653,
  "gen": 1654,
  "\u2581tribunal": 1655,
  "\u2581aucun": 1656,
  "\u2581diferentes": 1657,
  "\u2581Alors": 1658,
  "\u2581obligaciones": 1659,
  "\u2581\u00e9valuation": 1660,
  "tre": 1661,
  "\u2581Centre": 1662,
  "\u2581Informe": 1663,
  "ang": 1664,
  "cha": 1665,
  "\u2581Mo": 1666,
  "hi": 1667,
  "\u2581Secretar\u00eda": 1668,
  "\u2581sostenible": 1669,
  "\u2581capacitaci\u00f3n": 1670,
  "\u25811998": 1671,
  "\u2581risque": 1672,
  "\u2581febrero": 1673,
  "\u2581veces": 1674,
  "\u2581funciones": 1675,
  "\u2581Jo": 1676,
  "\u2581articles": 1677,
  "emos": 1678,
  "\u2581pasado": 1679,
  "\u2581nuestros": 1680,
  "\u2581organisation": 1681,
  "\u2581mission": 1682,
  "\u2581Merci": 1683,
  "\u2581Internet": 1684,
  "\u2581face": 1685,
  "\u2581gente": 1686,
  "\u2581vista": 1687,
  "\u2581instrumentos": 1688,
  "\u2581capital": 1689,
  "ven": 1690,
  "\u2581but": 1691,
  "\u2581gr\u00e2ce": 1692,
  "\u2581D\u00e9claration": 1693,
  "\u2581relatif": 1694,
  "\u2581Departamento": 1695,
  "\u2581j\u00f3venes": 1696,
  "ance": 1697,
  "\u2581tras": 1698,
  "\u2581f\u00e9vrier": 1699,
  "\u2581Declaraci\u00f3n": 1700,
  "\u2581especiales": 1701,
  "\u2581verdad": 1702,
  "Es": 1703,
  "\u2581Ou": 1704,
  "\u2581permanente": 1705,
  "ONU": 1706,
  "\u2581Bar": 1707,
  "ok": 1708,
  "\u2581ai": 1709,
  "\u2581Monsieur": 1710,
  "org": 1711,
  "\u2581utilizaci\u00f3n": 1712,
  "\u2581pr\u00e9sent\u00e9": 1713,
  "\u2581se\u00f1or": 1714,
  "\u2581futuro": 1715,
  "\u2581da": 1716,
  "\u25811992": 1717,
  "t\u00f3": 1718,
  "\u2581actes": 1719,
  "\u2581hizo": 1720,
  "\u2581riesgo": 1721,
  "\u2581obstante": 1722,
  "\u00e8re": 1723,
  "\u2581responsable": 1724,
  "\u2581central": 1725,
  "avais": 1726,
  "\u2581so": 1727,
  "mar": 1728,
  "\u2581superior": 1729,
  "\u2581debate": 1730,
  "\u2581cr\u00e9er": 1731,
  "\u2581considera": 1732,
  "\u25811995": 1733,
  "\u2581gens": 1734,
  "\u2581acuerdos": 1735,
  "\u2581avis": 1736,
  "\u2581PN": 1737,
  "\u2581etc": 1738,
  "\u2581ninguna": 1739,
  "\u25811996": 1740,
  "\u2581Ju": 1741,
  "tions": 1742,
  "\u2581souvent": 1743,
  "\u2581sociaux": 1744,
  "\u2581hablar": 1745,
  "\u2581fais": 1746,
  "\u2581Acuerdo": 1747,
  "\u2581parler": 1748,
  "\u2581Ka": 1749,
  "\u2581Son": 1750,
  "\u2581gouvernementale": 1751,
  "\u2581relacionadas": 1752,
  "\u2581Centro": 1753,
  "\u2581Israel": 1754,
  "\u2581r\u00e9fugi\u00e9s": 1755,
  "00": 1756,
  "\u2581d\u00e9cid\u00e9": 1757,
  "\u2581rendre": 1758,
  "\u2581establecido": 1759,
  "particuli\u00e8rement": 1760,
  "\u2581propuestas": 1761,
  "\u2581Convenio": 1762,
  "\u2581administraci\u00f3n": 1763,
  "ada": 1764,
  "\u2581Protocole": 1765,
  "men": 1766,
  "iens": 1767,
  "\u2581ville": 1768,
  "\u2581Ahora": 1769,
  "\u2581puestos": 1770,
  "\u2581s\u00fbr": 1771,
  "st": 1772,
  "\u2581Entre": 1773,
  "\u2581refiere": 1774,
  "\u2581Am\u00e9rica": 1775,
  "\u2581reducci\u00f3n": 1776,
  "\u2581relations": 1777,
  "\u2581seul": 1778,
  "\u2581ciudad": 1779,
  "ud": 1780,
  "\u2581convient": 1781,
  "\u2581territorio": 1782,
  "\u2581poner": 1783,
  "\u25812005,": 1784,
  "ng\u00fan": 1785,
  "\u2581ayudar": 1786,
  "\u2581an\u00e1lisis": 1787,
  "\u2581r\u00e9gime": 1788,
  "\u2581by": 1789,
  "fa": 1790,
  "\u2581obligations": 1791,
  "\u2581certain": 1792,
  "\u2581pass\u00e9": 1793,
  "\u2581pratique": 1794,
  "\u2581r\u00e9gimen": 1795,
  "\u2581resultado": 1796,
  "\u2581crear": 1797,
  "son": 1798,
  "annexe": 1799,
  "\u2581effets": 1800,
  "acte": 1801,
  "ard": 1802,
  "\u2581Per": 1803,
  "\u2581serie": 1804,
  "\u2581ligne": 1805,
  "\u2581com": 1806,
  "\u2581mecanismos": 1807,
  "\u2581Misi\u00f3n": 1808,
  "\u2581actos": 1809,
  "\u2581generales": 1810,
  "\u2581parece": 1811,
  "\u2581Mal": 1812,
  "\u2581contributions": 1813,
  "\u2581debido": 1814,
  "\u2581tecnolog\u00eda": 1815,
  "\u2581postes": 1816,
  "\u2581sorte": 1817,
  "\u2581puedan": 1818,
  "\u2581nunca": 1819,
  "\u2581dispuesto": 1820,
  "\u2581Hay": 1821,
  "\u2581producto": 1822,
  "\u25816.": 1823,
  "rse": 1824,
  "\u2581is": 1825,
  "\u2581Pre": 1826,
  "\u2581ten\u00eda": 1827,
  "U": 1828,
  "\u2581iniciativas": 1829,
  "\u2581entonces": 1830,
  "\u2581buena": 1831,
  "\u2581charg\u00e9": 1832,
  "\u2581Bo": 1833,
  "\u2581relativo": 1834,
  "\u2581Z": 1835,
  "eur": 1836,
  "\u2581centre": 1837,
  "EN": 1838,
  "\u2581tomar": 1839,
  "\u2581Ta": 1840,
  "\u2581adopci\u00f3n": 1841,
  "\u2581sp\u00e9ciale": 1842,
  "ber": 1843,
  "\u2581niveaux": 1844,
  "\u2581aspectos": 1845,
  "\u2581relatifs": 1846,
  "li": 1847,
  "\u2581presentaci\u00f3n": 1848,
  "\u2581gracias": 1849,
  "\u2581igual": 1850,
  "ismo": 1851,
  "ji": 1852,
  "fi": 1853,
  "\u2581vigor": 1854,
  "\u2581guerre": 1855,
  "\u2581annexe": 1856,
  "\u2581llevar": 1857,
  "\u2581strat\u00e9gie": 1858,
  "\u2581sitio": 1859,
  "\u2581agosto": 1860,
  "\u2581zone": 1861,
  "\u2581venir": 1862,
  "\u2581centro": 1863,
  "\u2581Fa": 1864,
  "\u2581actuellement": 1865,
  "\u2581aller": 1866,
  "\u2581peuple": 1867,
  "\u2581opini\u00f3n": 1868,
  "\u2581porte": 1869,
  "*": 1870,
  "\u2581consecuencia": 1871,
  "\u2581forces": 1872,
  "\u2581with": 1873,
  "\u2581dinero": 1874,
  "tivo": 1875,
  "\u2581tel": 1876,
  "\u2581alto": 1877,
  "\u2581d\u00e9sarmement": 1878,
  "\u2581terrorismo": 1879,
  "\u2581secr\u00e9tariat": 1880,
  "\u2581autochtone": 1881,
  "\u2581UE": 1882,
  "\u2581recours": 1883,
  "\u2581m\u00e9canismes": 1884,
  "\u2581r\u00e9alisation": 1885,
  "\u2581attention": 1886,
  "\u2581terrorisme": 1887,
  "\u2581estudio": 1888,
  "\u2581portant": 1889,
  "\u2581telles": 1890,
  "\u2581experiencia": 1891,
  "\u2581raz\u00f3n": 1892,
  "\u2581financieros": 1893,
  "\u2581autor": 1894,
  "\u00e9es": 1895,
  "\u2581Be": 1896,
  "\u2581administration": 1897,
  "\u25811997": 1898,
  "\u25812012": 1899,
  "\u258145": 1900,
  "\u2581hemos": 1901,
  "\u2581aunque": 1902,
  "\u2581expertos": 1903,
  "ement": 1904,
  "\u2581ro": 1905,
  "\u2581prevenci\u00f3n": 1906,
  "van": 1907,
  "\u2581instruments": 1908,
  "\u2581guerra": 1909,
  "\u2581ingresos": 1910,
  "\u2581derni\u00e8re": 1911,
  "ts": 1912,
  "ure": 1913,
  "ique": 1914,
  "\u2581incluidos": 1915,
  "\u2581empresa": 1916,
  "\u25812004,": 1917,
  "rio": 1918,
  "ran": 1919,
  "\u2581crois": 1920,
  "ite": 1921,
  "mer": 1922,
  "\u2581muchas": 1923,
  "\u2581financi\u00e8res": 1924,
  "\u2581tenemos": 1925,
  "\u25812006,": 1926,
  "19": 1927,
  "\u2581formes": 1928,
  "\u2581dois": 1929,
  "\u2581ailleurs": 1930,
  "\u2581energ\u00eda": 1931,
  "\u2581competencia": 1932,
  "\u2581aurait": 1933,
  "\u2581petit": 1934,
  "\u25812011": 1935,
  "\u2581Reino": 1936,
  "\u2581experts": 1937,
  "\u2581Ar": 1938,
  "\u2581d\u00e9bat": 1939,
  "ista": 1940,
  "\u2581propre": 1941,
  "\u2581web": 1942,
  "\u2581ao\u00fbt": 1943,
  "\u2581grave": 1944,
  "\u00e9simo": 1945,
  "\u2581representante": 1946,
  "\u258110.": 1947,
  "\u2581continuer": 1948,
  "\u2581Cela": 1949,
  "\u2581tenir": 1950,
  "\u2581km": 1951,
  "\u2581Pa": 1952,
  "environnement": 1953,
  "\u2581environ": 1954,
  "\u2581niveles": 1955,
  "\u2581pa": 1956,
  "AP": 1957,
  "\u2581importe": 1958,
  "\u2581cargo": 1959,
  "\u2581choses": 1960,
  "mp": 1961,
  "\u2581tratamiento": 1962,
  "eux": 1963,
  "\u2581Decisi\u00f3n": 1964,
  "\u2581conflictos": 1965,
  "\u2581crecimiento": 1966,
  "\u2581New": 1967,
  "\u2581mantener": 1968,
  "\u2581bo": 1969,
  "ito": 1970,
  "\u2581soy": 1971,
  "\u2581hayan": 1972,
  "\u2581emploi": 1973,
  "\u2581global": 1974,
  "\u2581Rapporteur": 1975,
  "\u2581IV": 1976,
  "\u2581Europe": 1977,
  "\u2581ser\u00eda": 1978,
  "\u2581centros": 1979,
  "\u2581tales": 1980,
  "\u2581auto": 1981,
  "ier": 1982,
  "\u2581pi": 1983,
  "\u2581diff\u00e9rentes": 1984,
  "\u2581DES": 1985,
  "\u2581facilitar": 1986,
  "\u2581comit\u00e9": 1987,
  "ana": 1988,
  "\u2581trabajadores": 1989,
  "\u2581conjunto": 1990,
  "\u2581colaboraci\u00f3n": 1991,
  "UNI": 1992,
  "\u2581consultatif": 1993,
  "int": 1994,
  "\u2581China": 1995,
  "ire": 1996,
  "\u2581cuales": 1997,
  "\u2581can": 1998,
  "\u2581Or": 1999,
  "\u2581nature": 2000,
  "\u2581oeuvre": 2001,
  "\u2581reducir": 2002,
  "d\u00e9": 2003,
  "\u2581relaciones": 2004,
  "\u2581resoluciones": 2005,
  "ther": 2006,
  "\u2581estrategia": 2007,
  "\u2581pueblos": 2008,
  "\u25812003,": 2009,
  "ger": 2010,
  "\u2581veut": 2011,
  "\u2581r\u00e9duction": 2012,
  "\u2581Secr\u00e9tariat": 2013,
  "\u2581ciudadanos": 2014,
  "\u2581transport": 2015,
  "\u2581seule": 2016,
  "\u2581relacionados": 2017,
  "ici": 2018,
  "\u2581aumentar": 2019,
  "ni": 2020,
  "\u25814,": 2021,
  "\u25811994": 2022,
  "\u2581ad": 2023,
  "\u2581Carta": 2024,
  "\u2581ejercicio": 2025,
  "\u2581Go": 2026,
  "\u2581conforme": 2027,
  "\u2581fonctions": 2028,
  "\u2581espera": 2029,
  "\u2581solicitud": 2030,
  "\u2581communautaire": 2031,
  "\u2581Congo": 2032,
  "\u2581charge": 2033,
  "\u2581elementos": 2034,
  "ko": 2035,
  "ow": 2036,
  "El": 2037,
  "\u2581appel": 2038,
  "\u2581Ch": 2039,
  "\u2581figura": 2040,
  "vo": 2041,
  "\u2581garantir": 2042,
  "\u2581cumplir": 2043,
  "\u25812000,": 2044,
  "\u2581permis": 2045,
  "\u2581soluci\u00f3n": 2046,
  "tos": 2047,
  "\u2581utilisation": 2048,
  "\u2581\u00e9galit\u00e9": 2049,
  "\u2581asegurar": 2050,
  "air": 2051,
  "\u2581or": 2052,
  "\u2581objectif": 2053,
  "ue": 2054,
  "\u25812002,": 2055,
  "\u2581int\u00e9rieur": 2056,
  "\u2581Acci\u00f3n": 2057,
  "30": 2058,
  "\u2581preocupaci\u00f3n": 2059,
  "\u2581lequel": 2060,
  "\u2581encontrar": 2061,
  "\u2581presentar": 2062,
  "sen": 2063,
  "\u2581realizar": 2064,
  "\u25817.": 2065,
  "\u2581vrai": 2066,
  "\u2581D\u00e9partement": 2067,
  "\u2581croissance": 2068,
  "\u00edan": 2069,
  "\u2581X": 2070,
  "\u2581propos": 2071,
  "\u2581todav\u00eda": 2072,
  "utilisation": 2073,
  "\u2581indiqu\u00e9": 2074,
  "lla": 2075,
  "\u00f1o": 2076,
  "\u2581\u00e9": 2077,
  "\u2581haciendo": 2078,
  "\u2581importance": 2079,
  "\u2581humanitaire": 2080,
  "\u2581Vamos": 2081,
  "\u2581compromiso": 2082,
  "\u2581C\u00f3digo": 2083,
  "\u2581capacit\u00e9": 2084,
  "\u2581position": 2085,
  "zo": 2086,
  "\u2581financi\u00e8re": 2087,
  "\u2581ve": 2088,
  "car": 2089,
  "\u2581r\u00e9solutions": 2090,
  "\u2581p\u00e8re": 2091,
  "\u00e9n": 2092,
  "su": 2093,
  "\u2581sol": 2094,
  "\u2581statut": 2095,
  "\u2581red": 2096,
  "\u2581risques": 2097,
  "\u2581EN": 2098,
  "\u2581r\u00e9duire": 2099,
  "\u2581termes": 2100,
  "\u2581dialogue": 2101,
  "\u2581siento": 2102,
  "ntes": 2103,
  "\u2581telle": 2104,
  "era": 2105,
  "cho": 2106,
  "\u2581Director": 2107,
  "\u2581ense\u00f1anza": 2108,
  "\u2581accords": 2109,
  "\u2581precios": 2110,
  "\u2581secci\u00f3n": 2111,
  "\u2581Man": 2112,
  "\u2581r\u00e9gional": 2113,
  "\u2581Du": 2114,
  "\u2581eran": 2115,
  "\u2581conf\u00e9rence": 2116,
  "\u2581parmi": 2117,
  "\u2581crisis": 2118,
  "\u2581seguro": 2119,
  "\u2581hijos": 2120,
  "\u2581reforma": 2121,
  "\u2581trouve": 2122,
  "\u2581Po": 2123,
  "\u258155": 2124,
  "\u2581Bon": 2125,
  "\u2581dado": 2126,
  "\u2581commune": 2127,
  "\u2581necesita": 2128,
  "ic": 2129,
  "ence": 2130,
  "\u2581actividad": 2131,
  "\u2581fuerzas": 2132,
  "\u2581curso": 2133,
  "\u2581efficace": 2134,
  "\u2581obtener": 2135,
  "$": 2136,
  "\u2581leyes": 2137,
  "chi": 2138,
  "\u2581k": 2139,
  "\u2581filles": 2140,
  "\u2581di\u00e1logo": 2141,
  "\u2581pues": 2142,
  "\u258135": 2143,
  "\u2581Royaume": 2144,
  "\u2581suivants": 2145,
  "\u2581France": 2146,
  "it\u00e9": 2147,
  "ies": 2148,
  "\u2581aprobaci\u00f3n": 2149,
  "\u2581ofrece": 2150,
  "gue": 2151,
  "\u2581d\u00e9mocratique": 2152,
  "\u2581pr\u00e9senter": 2153,
  "\u2581So": 2154,
  "\u2581contexte": 2155,
  "\u00e9tais": 2156,
  "\u2581conflits": 2157,
  "\u2581finales": 2158,
  "\u2581International": 2159,
  "\u2581seguimiento": 2160,
  "\u2581disponible": 2161,
  "\u2581extra": 2162,
  "\u2581examiner": 2163,
  "\u2581peuples": 2164,
  "\u2581disposition": 2165,
  "\u00f3n": 2166,
  "\u25812007,": 2167,
  "\u2581possibilit\u00e9": 2168,
  "\u2581alguna": 2169,
  "\u2581directrices": 2170,
  "emploi": 2171,
  "\u2581civiles": 2172,
  "\u2581varias": 2173,
  "CO": 2174,
  "qu\u00e9": 2175,
  "\u2581renseignements": 2176,
  "eu": 2177,
  "\u2581pr\u00e8s": 2178,
  "\u2581Code": 2179,
  "ras": 2180,
  "\u2581conflit": 2181,
  "\u2581regiones": 2182,
  "po": 2183,
  "\u25811993": 2184,
  "\u2581p\u00e9nale": 2185,
  "\u2581directement": 2186,
  "\u2581creo": 2187,
  "cia": 2188,
  "\u2581determinar": 2189,
  "CR": 2190,
  "han": 2191,
  "\u2581propositions": 2192,
  "\u2581biens": 2193,
  "\u2581suivant": 2194,
  "aci\u00f3n": 2195,
  "\u2581teniendo": 2196,
  "\u2581faciliter": 2197,
  "\u2581estudios": 2198,
  "\u2581plupart": 2199,
  "\u2581temas": 2200,
  "\u2581missions": 2201,
  "we": 2202,
  "avoir": 2203,
  "\u2581Etats": 2204,
  "\u2581celebrada": 2205,
  "\u2581consultas": 2206,
  "\u2581bienes": 2207,
  "\u2581dejar": 2208,
  "\u25812001,": 2209,
  "\u2581initiatives": 2210,
  "\u2581prot\u00e9ger": 2211,
  "\u2581Pacto": 2212,
  "\u2581cerca": 2213,
  "\u2581d\u00e9fense": 2214,
  "\u2581fines": 2215,
  "\u2581\u00faltimos": 2216,
  "\u2581actions": 2217,
  "\u2581fundamentales": 2218,
  "\u2581ra": 2219,
  "ak": 2220,
  "\u2581tiers": 2221,
  "ap": 2222,
  "\u2581financiera": 2223,
  "Uni": 2224,
  "\u2581utilizar": 2225,
  "\u2581estamos": 2226,
  "\u2581tierra": 2227,
  "\u2581eficaz": 2228,
  "lin": 2229,
  "\u2581regard": 2230,
  "\u2581lois": 2231,
  "\u2581ellas": 2232,
  "\u2581march\u00e9s": 2233,
  "\u2581faites": 2234,
  "\u00e9ducation": 2235,
  "\u2581refugiados": 2236,
  "\u2581travailleurs": 2237,
  "\u2581padre": 2238,
  "\u2581establece": 2239,
  "\u2581d\u00e9but": 2240,
  "25": 2241,
  "\u2581fonctionnaires": 2242,
  "\u2581observaciones": 2243,
  "\u2581Cor": 2244,
  "\u2581tenue": 2245,
  "\u2581ait": 2246,
  "\u2581passe": 2247,
  "\u2581publics": 2248,
  "\u2581Union": 2249,
  "\u25818.": 2250,
  "\u2581r\u00e9ponse": 2251,
  "\u2581provisional": 2252,
  "0": 2253,
  "\u2581participer": 2254,
  "\u2581voy": 2255,
  "\u2581Haut": 2256,
  "ight": 2257,
  "\u2581continue": 2258,
  "X": 2259,
  "\u2581hora": 2260,
  "\u2581force": 2261,
  "\u2581donne": 2262,
  "\u2581puis": 2263,
  "l\u00e9": 2264,
  "DI": 2265,
  "\u2581torture": 2266,
  "10": 2267,
  "\u2581llegar": 2268,
  "\u2581bureau": 2269,
  "\u2581ba": 2270,
  "\u2581cuyo": 2271,
  "\u2581nombreuses": 2272,
  "\u2581tard": 2273,
  "\u2581partenaires": 2274,
  "\u2581deber\u00e1": 2275,
  "\u2581muerte": 2276,
  "\u2581Asia": 2277,
  "\u2581r\u00e9gionales": 2278,
  "\u2581asuntos": 2279,
  "\u2581prestar": 2280,
  "\u2581lorsqu": 2281,
  "\u2581objet": 2282,
  "\u2581suit": 2283,
  "IDA": 2284,
  "\u2581entidades": 2285,
  "lu": 2286,
  "\u2581sectores": 2287,
  "\u2581Desde": 2288,
  "\u2581\u00e9tabli": 2289,
  "\u2581Cuba": 2290,
  "\u2581pregunta": 2291,
  "\u2581necesarias": 2292,
  "\u2581fonctionnement": 2293,
  "\u2581planes": 2294,
  "ill": 2295,
  "\u2581Do": 2296,
  "\u2581l\u00ednea": 2297,
  "v\u00e9ase": 2298,
  "\u2581sexual": 2299,
  "\u2581davantage": 2300,
  "\u2581dur\u00e9e": 2301,
  "\u2581espacio": 2302,
  "\u2581seis": 2303,
  "\u2581alguien": 2304,
  "Europe": 2305,
  "\u25812008,": 2306,
  "vis": 2307,
  "\u2581priv\u00e9": 2308,
  "\u2581privado": 2309,
  "\u2581Nos": 2310,
  "ica": 2311,
  "\u2581r\u00e9f\u00e9rence": 2312,
  "\u2581enqu\u00eate": 2313,
  "gu": 2314,
  "\u00e9r": 2315,
  "\u2581ex\u00e9cution": 2316,
  "\u2581evitar": 2317,
  "\u2581historia": 2318,
  "\u2581consecuencias": 2319,
  "\u2581rurales": 2320,
  "\u2581presentado": 2321,
  "\u2581Quoi": 2322,
  "\u2581origen": 2323,
  "\u2581utiliser": 2324,
  "\u2581troisi\u00e8me": 2325,
  "\u2581menores": 2326,
  "\u2581est\u00e9": 2327,
  "\u2581oportunidad": 2328,
  "\u2581aspects": 2329,
  "\u2581Pe": 2330,
  "iva": 2331,
  "\u2581hijo": 2332,
  "examen": 2333,
  "\u2581permet": 2334,
  "\u2581Saint": 2335,
  "\u2581ind\u00edgenas": 2336,
  "\u2581Econ\u00f3mico": 2337,
  "\u2581soins": 2338,
  "\u2581proteger": 2339,
  "\u2581Tengo": 2340,
  "rai": 2341,
  "gra": 2342,
  "\u2581pleinement": 2343,
  "ac": 2344,
  "\u2581casi": 2345,
  "\u2581\u00fanico": 2346,
  "\u2581plenamente": 2347,
  "\u2581\u00e9tablissements": 2348,
  "\u2581conflicto": 2349,
  "\u2581Ver": 2350,
  "\u2581direcci\u00f3n": 2351,
  "\u2581propres": 2352,
  "\u2581cr\u00e9\u00e9": 2353,
  "\u2581misi\u00f3n": 2354,
  "\u2581Bu": 2355,
  "\u2581\u00e9tudes": 2356,
  "\u2581divers": 2357,
  "\u2581m\u00e8re": 2358,
  "iga": 2359,
  "\u2581demander": 2360,
  "gi": 2361,
  "\u2581anterior": 2362,
  "\u2581voie": 2363,
  "\u2581d\u00e8s": 2364,
  "\u2581Toutefois": 2365,
  "\u2581Fi": 2366,
  "\u2581segunda": 2367,
  "bre": 2368,
  "\u2581pasa": 2369,
  "\u2581secretar\u00eda": 2370,
  "m\u00eame": 2371,
  "min": 2372,
  "\u2581podemos": 2373,
  "dores": 2374,
  "\u2581nuit": 2375,
  "\u2581mat\u00e9riel": 2376,
  "\u2581causa": 2377,
  "\u2581Unido": 2378,
  "\u2581disposici\u00f3n": 2379,
  "\u2581citoyens": 2380,
  "end": 2381,
  "\u2581funcionamiento": 2382,
  "\u2581archivo": 2383,
  "\u2581do": 2384,
  "ler": 2385,
  "\u2581profesional": 2386,
  "he": 2387,
  "\u2581lado": 2388,
  "\u2581continuaci\u00f3n": 2389,
  "\u2581r\u00e9pondre": 2390,
  "\u2581r\u00e9forme": 2391,
  "ju": 2392,
  "\u2581consiguiente": 2393,
  "\u2581dicha": 2394,
  "\u2581provisoire": 2395,
  "\u2581collaboration": 2396,
  "hu": 2397,
  "\u2581posici\u00f3n": 2398,
  "\u2581Quand": 2399,
  "\u2581ONG": 2400,
  "\u2581pourraient": 2401,
  "sh": 2402,
  "\u2581peine": 2403,
  "\u2581soumis": 2404,
  "ny": 2405,
  "\u2581esferas": 2406,
  "\u2581suma": 2407,
  "\u2581esfera": 2408,
  "\u2581r\u00e9serve": 2409,
  "8": 2410,
  "ensemble": 2411,
  "\u2581permettant": 2412,
  "\u2581autoridad": 2413,
  "\u2581trato": 2414,
  "\u2581Derecho": 2415,
  "\u2581200": 2416,
  "\u2581n\u00e9gociations": 2417,
  "\u2581faisant": 2418,
  "\u2581Penal": 2419,
  "\u2581derni\u00e8res": 2420,
  "\u2581deber\u00edan": 2421,
  "\u2581six": 2422,
  "\u2581suppl\u00e9mentaires": 2423,
  "\u2581fundamental": 2424,
  "\u2581proporcionar": 2425,
  "\u2581demandes": 2426,
  "\u2581observations": 2427,
  "DE": 2428,
  "\u2581aura": 2429,
  "hor": 2430,
  "\u2581tipos": 2431,
  "\u2581po": 2432,
  "ita": 2433,
  "\u2581surveillance": 2434,
  "14": 2435,
  "\u25812013": 2436,
  "\u2581financiers": 2437,
  "\u2581comunidades": 2438,
  "\u2581(1": 2439,
  "\u2581pr\u00e9": 2440,
  "\u2581sexes": 2441,
  "\u2581econom\u00eda": 2442,
  "MA": 2443,
  "\u2581Durante": 2444,
  "\u2581adoptadas": 2445,
  "\u2581participantes": 2446,
  "\u2581Medio": 2447,
  "\u2581co\u00fbts": 2448,
  "\u2581\u00faltima": 2449,
  "dessus": 2450,
  "\u2581Apr\u00e8s": 2451,
  "\u2581tus": 2452,
  "\u2581m\u00e9thodes": 2453,
  "Est\u00e1": 2454,
  "\u2581caract\u00e8re": 2455,
  "\u2581Permanente": 2456,
  "ico": 2457,
  "\u2581S\u00f3lo": 2458,
  "\u2581fils": 2459,
  "\u2581incluidas": 2460,
  "\u2581enfoque": 2461,
  "\u2581preparaci\u00f3n": 2462,
  "wa": 2463,
  "\u2581devons": 2464,
  "\u2581Gu": 2465,
  "\u2581Ba": 2466,
  "\u2581realidad": 2467,
  "\u2581main": 2468,
  "\u2581gra": 2469,
  "\u2581Ad": 2470,
  "op": 2471,
  "\u2581material": 2472,
  "\u2581comptes": 2473,
  "\u2581d\u00e9tention": 2474,
  "\u2581Tra": 2475,
  "\u2581Representante": 2476,
  "\u2581fe": 2477,
  "\u25819.": 2478,
  "\u2581faits": 2479,
  "teur": 2480,
  "AC": 2481,
  "\u2581tratados": 2482,
  "ren": 2483,
  "\u2581\u00e9xito": 2484,
  "\u2581adoption": 2485,
  "sta": 2486,
  "\u2581obtenir": 2487,
  "\u2581conocimientos": 2488,
  "\u2581fond": 2489,
  "\u2581hacerlo": 2490,
  "\u2581parti": 2491,
  "\u2581pr\u00e9vu": 2492,
  "\u2581gobierno": 2493,
  "\u2581contribuciones": 2494,
  "\u2581Seg\u00fan": 2495,
  "\u2581terreno": 2496,
  "\u2581secteurs": 2497,
  "\u2581Entonces": 2498,
  "\u2581pr\u00e9vues": 2499,
  "9": 2500,
  "\u2581van": 2501,
  "ib": 2502,
  "\u2581Todos": 2503,
  "\u2581consultations": 2504,
  "\u2581Sub": 2505,
  "\u2581violations": 2506,
  "\u2581acciones": 2507,
  "\u2581elaboraci\u00f3n": 2508,
  "\u2581Chine": 2509,
  "\u2581participar": 2510,
  "\u2581Da": 2511,
  "land": 2512,
  "\u2581quien": 2513,
  "\u2581technologies": 2514,
  "\u2581junto": 2515,
  "\u258136": 2516,
  "\u2581Examen": 2517,
  "\u2581independiente": 2518,
  "\u2581ah\u00ed": 2519,
  "\u2581diverses": 2520,
  "\u2581commission": 2521,
  "tado": 2522,
  "\u2581idea": 2523,
  "\u2581simple": 2524,
  "\u2581traite": 2525,
  "\u00e9valuation": 2526,
  "\u258134": 2527,
  "ale": 2528,
  "\u2581r\u00e9seau": 2529,
  "\u2581cambios": 2530,
  "\u2581judiciaire": 2531,
  "tis": 2532,
  "ate": 2533,
  "\u2581Creo": 2534,
  "\u2581Constitution": 2535,
  "\u2581intereses": 2536,
  "\u2581Inter": 2537,
  "\u2581soir": 2538,
  "\u2581juridiques": 2539,
  "\u2581camino": 2540,
  "\u2581progresos": 2541,
  "\u2581oficial": 2542,
  "\u2581eficacia": 2543,
  "tro": 2544,
  "\u2581cuadro": 2545,
  "ri": 2546,
  "\u2581O\u00f9": 2547,
  "\u2581plans": 2548,
  "\u2581centres": 2549,
  "\u2581Informaci\u00f3n": 2550,
  "\u2581Plus": 2551,
  "\u2581ho": 2552,
  "\u2581appliquer": 2553,
  "\u2581directamente": 2554,
  "\u2581judicial": 2555,
  "\u2581Justicia": 2556,
  "\u2581requisitos": 2557,
  "ex\u00e9cution": 2558,
  "\u2581d\u00fb": 2559,
  "\u2581Aunque": 2560,
  "\u2581diversos": 2561,
  "\u2581interne": 2562,
  "\u2581culture": 2563,
  "\u2581tenga": 2564,
  "\u2581changements": 2565,
  "\u2581figuran": 2566,
  "\u2581marcha": 2567,
  "\u2581negociaciones": 2568,
  "\u2581constitue": 2569,
  "cen": 2570,
  "exercice": 2571,
  "\u2581madre": 2572,
  "\u258148": 2573,
  "\u2581chi": 2574,
  "cri": 2575,
  "\u2581cosa": 2576,
  "ish": 2577,
  "\u2581relativos": 2578,
  "\u2581frais": 2579,
  "\u2581large": 2580,
  "\u2581hubiera": 2581,
  "\u2581cuentas": 2582,
  "\u2581significa": 2583,
  "\u2581ingl\u00e9s": 2584,
  "\u258137": 2585,
  "vers": 2586,
  "\u2581delito": 2587,
  "\u2581necesarios": 2588,
  "\u2581Tiene": 2589,
  "\u2581pago": 2590,
  "\u2581Esa": 2591,
  "\u2581crise": 2592,
  "ist": 2593,
  "17": 2594,
  "ali": 2595,
  "\u2581preuve": 2596,
  "\u2581parents": 2597,
  "\u2581principaux": 2598,
  "\u2581pol\u00edticos": 2599,
  "\u2581sp\u00e9cifiques": 2600,
  "\u2581v": 2601,
  "\u2581cuya": 2602,
  "\u2581dif\u00edcil": 2603,
  "\u2581sexuelle": 2604,
  "\u2581Val": 2605,
  "\u2581Am\u00e9rique": 2606,
  "ity": 2607,
  "\u2581gusta": 2608,
  "\u2581ma\u00f1ana": 2609,
  "\u2581incluida": 2610,
  "\u2581Web": 2611,
  "\u2581constituye": 2612,
  "\u2581delitos": 2613,
  "\u2581veiller": 2614,
  "\u2581servir": 2615,
  "\u2581passer": 2616,
  "\u2581fuerza": 2617,
  "dad": 2618,
  "agit": 2619,
  "\u2581tenido": 2620,
  "\u2581dispose": 2621,
  "\u2581recomienda": 2622,
  "\u2581respecta": 2623,
  "\u2581R\u00e8glement": 2624,
  "\u2581comunicaciones": 2625,
  "objet": 2626,
  "\u2581violaciones": 2627,
  "\u2581professionnelle": 2628,
  "\u00f4t": 2629,
  "\u2581mo": 2630,
  "\u2581prend": 2631,
  "\u2581Repr\u00e9sentant": 2632,
  "dy": 2633,
  "\u2581re\u00e7u": 2634,
  "mento": 2635,
  "iz": 2636,
  "\u2581supervisi\u00f3n": 2637,
  "\u2581padres": 2638,
  "ah": 2639,
  "\u2581ET": 2640,
  "\u258190": 2641,
  "\u2581financier": 2642,
  "\u2581jouer": 2643,
  "\u2581solution": 2644,
  "\u2581fichier": 2645,
  "\u2581respeto": 2646,
  "\u2581misiones": 2647,
  "\u2581entrada": 2648,
  "tant": 2649,
  "\u2581\u00e9tablir": 2650,
  "\u2581luego": 2651,
  "\u2581quel": 2652,
  "\u2581fondo": 2653,
  "\u2581Habi": 2654,
  "\u258149": 2655,
  "\u2581R\u00e9": 2656,
  "cre": 2657,
  "\u2581poli": 2658,
  "\u2581suivantes": 2659,
  "gr\u00e9": 2660,
  "\u2581Francia": 2661,
  "\u2581int\u00e9r\u00eat": 2662,
  "\u2581permite": 2663,
  "\u2581Italia": 2664,
  "\u2581reconocimiento": 2665,
  "\u2581previsto": 2666,
  "\u2581oficiales": 2667,
  "\u2581contenido": 2668,
  "\u2581poste": 2669,
  "\u2581oportunidades": 2670,
  "\u2581pruebas": 2671,
  "\u2581terre": 2672,
  "\u2581vamos": 2673,
  "naire": 2674,
  "\u2581r\u00e9gionaux": 2675,
  "\u2581anual": 2676,
  "\u2581EL": 2677,
  "\u2581participants": 2678,
  "\u2581toma": 2679,
  "\u2581ii": 2680,
  "\u2581militaires": 2681,
  "\u2581apoyar": 2682,
  "tte": 2683,
  "\u2581palabras": 2684,
  "\u2581li": 2685,
  "\u2581\u00e9tude": 2686,
  "pi": 2687,
  "\u2581agents": 2688,
  "\u2581iniciativa": 2689,
  "\u2581Ben": 2690,
  "\u2581Est": 2691,
  "\u2581VI": 2692,
  "\u2581mecanismo": 2693,
  "OS": 2694,
  "\u2581concepto": 2695,
  "\u258144": 2696,
  "\u2581Constituci\u00f3n": 2697,
  "\u2581criterios": 2698,
  "\u25815,": 2699,
  "DO": 2700,
  "\u2581bi": 2701,
  "\u2581diversas": 2702,
  "ph": 2703,
  "\u2581To": 2704,
  ".3": 2705,
  "\u258147": 2706,
  "n\u00e9": 2707,
  "fe": 2708,
  "\u2581Nord": 2709,
  "\u2581Voir": 2710,
  "\u2581entendu": 2711,
  "\u2581all\u00ed": 2712,
  "\u2581quelqu": 2713,
  "g\u00fan": 2714,
  "\u2581poursuivre": 2715,
  "\u2581lugares": 2716,
  "UN": 2717,
  "\u2581amplia": 2718,
  "\u2581minutos": 2719,
  "\u2581confiance": 2720,
  "\u2581escala": 2721,
  "\u2581integraci\u00f3n": 2722,
  "\u2581Selon": 2723,
  "\u2581infraestructura": 2724,
  "\u2581Dr": 2725,
  "\u2581crit\u00e8res": 2726,
  "\u2581condition": 2727,
  "\u25812014": 2728,
  "\u2581lettre": 2729,
  "\u2581centrale": 2730,
  "\u2581Ven": 2731,
  "\u2581trabajar": 2732,
  "\u2581unas": 2733,
  "gan": 2734,
  "\u2581pesar": 2735,
  "\u2581humains": 2736,
  "2,": 2737,
  "\u2581pr\u00e9voit": 2738,
  "\u2581ser\u00e1n": 2739,
  "\u2581agentes": 2740,
  "\u2581procesos": 2741,
  "tive": 2742,
  "\u2581Servicios": 2743,
  "\u2581suficiente": 2744,
  "int\u00e9r\u00eat": 2745,
  "\u2581pr\u00e9sident": 2746,
  "\u2581semble": 2747,
  "\u2581ven": 2748,
  "lic": 2749,
  "\u2581engagements": 2750,
  "\u2581examin\u00e9": 2751,
  "\u2581Sous": 2752,
  "\u2581contribution": 2753,
  "\u2581li\u00e9es": 2754,
  "\u2581asociados": 2755,
  "\u2581voudrais": 2756,
  "2005": 2757,
  "\u2581penal": 2758,
  "\u2581p\u00eache": 2759,
  "\u2581vote": 2760,
  "\u2581alrededor": 2761,
  "\u2581estrategias": 2762,
  "ham": 2763,
  "40": 2764,
  "\u2581encuentra": 2765,
  "\u2581cantidad": 2766,
  "\u2581real": 2767,
  "\u2581difficult\u00e9s": 2768,
  "\u2581approche": 2769,
  "\u2581directives": 2770,
  "d\u00ed": 2771,
  "via": 2772,
  "\u2581militar": 2773,
  "\u2581Del": 2774,
  "\u2581Li": 2775,
  "acc\u00e8s": 2776,
  "\u2581bar": 2777,
  "\u2581d\u00e9lai": 2778,
  "\u258156": 2779,
  "\u2581strat\u00e9gies": 2780,
  "amour": 2781,
  "\u2581rapide": 2782,
  "CI": 2783,
  "\u2581enseignement": 2784,
  "\u2581mu": 2785,
  "\u2581anglais": 2786,
  "\u2581conclusions": 2787,
  "\u2581Rusia": 2788,
  "\u2581queda": 2789,
  "\u2581visto": 2790,
  "\u2581luz": 2791,
  "lia": 2792,
  "\u2581desarme": 2793,
  "tr": 2794,
  "ova": 2795,
  "ley": 2796,
  "\u2581familias": 2797,
  "\u2581publiques": 2798,
  "ec": 2799,
  "\u2581aprobado": 2800,
  "\u2581permanent": 2801,
  "\u2581buen": 2802,
  "\u2581carta": 2803,
  "\u2581co\u00fbt": 2804,
  "\u2581choix": 2805,
  "\u2581tarde": 2806,
  "\u2581propos\u00e9": 2807,
  "\u2581cor": 2808,
  "\u2581construcci\u00f3n": 2809,
  "\u2581recommande": 2810,
  "\u2581alcanzar": 2811,
  "ienne": 2812,
  "\u2581contacto": 2813,
  "\u2581unique": 2814,
  "\u2581Pen": 2815,
  "cer": 2816,
  "\u2581alta": 2817,
  "bu": 2818,
  "izaci\u00f3n": 2819,
  "bra": 2820,
  "\u2581p\u00fablicos": 2821,
  "\u2581Depuis": 2822,
  "\u258146": 2823,
  "\u2581indica": 2824,
  "\u2581analyse": 2825,
  "\u2581econ\u00f3micos": 2826,
  "\u2581visite": 2827,
  "\u2581crime": 2828,
  "\u2581semana": 2829,
  "\u2581comerciales": 2830,
  "\u2581propia": 2831,
  "\u2581financieras": 2832,
  "up": 2833,
  "nu": 2834,
  "\u2581Corte": 2835,
  "\u2581obligaci\u00f3n": 2836,
  "\u2581lesquelles": 2837,
  "right": 2838,
  "\u2581travers": 2839,
  "\u00e1s": 2840,
  "\u2581m\u00e9canisme": 2841,
  "\u2581locaux": 2842,
  "\u2581coup": 2843,
  "Qui\u00e9n": 2844,
  "\u2581em": 2845,
  "\u2581fille": 2846,
  "\u2581Comisionad": 2847,
  "nous": 2848,
  "\u258138": 2849,
  "\u2581militares": 2850,
  "nie": 2851,
  "\u2581podr\u00edan": 2852,
  "\u2581Qu\u00e9": 2853,
  "ll": 2854,
  "\u2581chef": 2855,
  "\u2581salle": 2856,
  "ong": 2857,
  "ario": 2858,
  "\u2581man": 2859,
  "\u2581d\u00e9l\u00e9gations": 2860,
  "\u2581palabra": 2861,
  "\u2212": 2862,
  "\u2581\u00e9tablissement": 2863,
  "\u25811999,": 2864,
  "\u2581planification": 2865,
  "\u2581delegaciones": 2866,
  "entre": 2867,
  "aime": 2868,
  "\u2581civils": 2869,
  "\u258111.": 2870,
  "ris": 2871,
  "\u2581distintos": 2872,
  "use": 2873,
  "\u2581Avec": 2874,
  "ann\u00e9e": 2875,
  "\u2581trabajos": 2876,
  "\u2581fortaleci": 2877,
  "\u2581tes": 2878,
  "\u2581res": 2879,
  "\u2581planificaci\u00f3n": 2880,
  "\u2581J\u00e9sus": 2881,
  "\u258142": 2882,
  "\u2581raisons": 2883,
  "\u2581cri": 2884,
  "\u2581aprob\u00f3": 2885,
  "\u2581Kosovo": 2886,
  "amp": 2887,
  "\u2581puntos": 2888,
  "\u2581d\u00e9terminer": 2889,
  "\u2581tendr\u00e1": 2890,
  "\u2581propiedad": 2891,
  "\u2581suivre": 2892,
  "\u2581fortalecer": 2893,
  ".5": 2894,
  "IN": 2895,
  "\u2581Quel": 2896,
  "\u2581escrito": 2897,
  "ateur": 2898,
  "\u2581ni\u00f1as": 2899,
  "euse": 2900,
  "\u2581tortura": 2901,
  "\u2581nuestras": 2902,
  "\u2581Ministro": 2903,
  "port": 2904,
  "\u2581augmentation": 2905,
  "\u2581condici\u00f3n": 2906,
  "\u2581cr\u00e9dit": 2907,
  "\u258143": 2908,
  "\u2581am": 2909,
  "@": 2910,
  "\u2581mejores": 2911,
  "\u258157": 2912,
  "50": 2913,
  "\u2581rapidement": 2914,
  "16": 2915,
  "\u2581devra": 2916,
  "\u2581adicionales": 2917,
  "\u2581Sam": 2918,
  "ments": 2919,
  "\u2581juicio": 2920,
  "\u2581euros": 2921,
  "\u2581section": 2922,
  "\u2581statistiques": 2923,
  "\u2581declaraciones": 2924,
  "\u2581haga": 2925,
  "Z": 2926,
  "Te": 2927,
  "\u2581trait\u00e9s": 2928,
  "\u258170": 2929,
  "\u25812009,": 2930,
  "\u2581oficinas": 2931,
  "ados": 2932,
  "\u2581terrain": 2933,
  "\u00a9": 2934,
  "\u2581situaciones": 2935,
  "\u2581corps": 2936,
  "\u2581Alto": 2937,
  "vin": 2938,
  "\u2581existentes": 2939,
  "\u2581materiales": 2940,
  "\u2581precio": 2941,
  "\u2581Paz": 2942,
  "\u2581mercados": 2943,
  "\u2581Isra\u00ebl": 2944,
  "\u2581'": 2945,
  "\u2581nuclear": 2946,
  "\u2581int\u00e9r\u00eats": 2947,
  "\u2581podr\u00e1n": 2948,
  "\u2581militaire": 2949,
  "\u2581Russie": 2950,
  "\u2581nucl\u00e9aire": 2951,
  "\u2581m\u00e9todos": 2952,
  "\u2581chapitre": 2953,
  "\u2581estaban": 2954,
  "\u2581Portugal": 2955,
  "\u258158": 2956,
  "\u2581pol\u00edtico": 2957,
  "ens": 2958,
  "\u2581minutes": 2959,
  "\u2581inversi\u00f3n": 2960,
  "line": 2961,
  "Re": 2962,
  "\u2581radio": 2963,
  "\u2581recibir": 2964,
  "\u2581s\u00e9rie": 2965,
  "\u2581soulign\u00e9": 2966,
  "ig": 2967,
  "\u2581propio": 2968,
  "\u2581estime": 2969,
  "\u2581bas": 2970,
  "\u2581industria": 2971,
  "administration": 2972,
  "\u2581incluye": 2973,
  "\u2581plein": 2974,
  "\u2581manque": 2975,
  "rre": 2976,
  "\u2581deber\u00e1n": 2977,
  "\u2581trouv\u00e9": 2978,
  "\u2581realmente": 2979,
  "ino": 2980,
  "\u2581anteriores": 2981,
  "\u2581met": 2982,
  "illa": 2983,
  "\u2581volver": 2984,
  "\u2581Alemania": 2985,
  "cide": 2986,
  "\u2581activit\u00e9": 2987,
  "ando": 2988,
  "\u2581tercer": 2989,
  "\u2581Cha": 2990,
  "fer": 2991,
  "urs": 2992,
  "\u00e9nergie": 2993,
  "ables": 2994,
  "\u2581populations": 2995,
  "\u2581photo": 2996,
  "\u2581comp\u00e9tences": 2997,
  "Le": 2998,
  "\u2581Asimismo": 2999,
  "\u2581contribuer": 3000,
  "\u2581Sala": 3001,
  "3,": 3002,
  "ive": 3003,
  "\u2581demasiado": 3004,
  "\u2581cierto": 3005,
  "\u2581Administraci\u00f3n": 3006,
  "udi": 3007,
  "\u2581prueba": 3008,
  "\u2581+": 3009,
  "ary": 3010,
  "\u2581Todo": 3011,
  "\u258154": 3012,
  "\u2581offre": 3013,
  "ques": 3014,
  "\u2581valores": 3015,
  "\u2581construction": 3016,
  "\u2581li\u00e9s": 3017,
  "\u2581sal": 3018,
  "\u2581direction": 3019,
  "\u2581tr\u00e1fico": 3020,
  "ants": 3021,
  "b\u00e9": 3022,
  "\u2581difficile": 3023,
  "\u2581DO": 3024,
  "\u2581detenci\u00f3n": 3025,
  "\u2581circunstancias": 3026,
  "ill\u00e9": 3027,
  "\u2581d\u00e9clar\u00e9": 3028,
  "argent": 3029,
  "by": 3030,
  "\u2581Point": 3031,
  "\u2581reglamento": 3032,
  "\u258177": 3033,
  "\u2581Consult": 3034,
  "\u2581concurrence": 3035,
  "\u00f4": 3036,
  "\u2581pr\u00e9sence": 3037,
  "\u2581multi": 3038,
  "\u2581bureaux": 3039,
  "\u2581prison": 3040,
  "\u2581categor\u00eda": 3041,
  "ero": 3042,
  "ses": 3043,
  "\u2581#": 3044,
  "\u2581riesgos": 3045,
  "ame": 3046,
  "\u2581volont\u00e9": 3047,
  "\u2581Tema": 3048,
  "\u2581Pa\u00edses": 3049,
  "\u2581Quiero": 3050,
  "\u2581incluir": 3051,
  "\u2581actualmente": 3052,
  "\u258152": 3053,
  "\u2581propose": 3054,
  "\u2581nadie": 3055,
  "\u2581fa": 3056,
  "iez": 3057,
  "\u2581financiero": 3058,
  "\u258180": 3059,
  "\u2581succ\u00e8s": 3060,
  "ting": 3061,
  "\u2581Ac": 3062,
  "ion": 3063,
  "\u2581mano": 3064,
  "dis": 3065,
  "\u2581per\u00edodos": 3066,
  "ins": 3067,
  "\u2581soci\u00e9t\u00e9s": 3068,
  "\u2581bueno": 3069,
  "\u2581imp": 3070,
  "\u2581puisse": 3071,
  "\u2581prestaci\u00f3n": 3072,
  "\u2581p\u00e1gina": 3073,
  "\u2581Gran": 3074,
  "\u2581pasar": 3075,
  "\u2581d\u00e9clarations": 3076,
  "isme": 3077,
  "\u2581communaut\u00e9s": 3078,
  "\u2581compromisos": 3079,
  "\u2581paragraphes": 3080,
  "\u258139": 3081,
  "\u2581interesados": 3082,
  "\u2581Trait\u00e9": 3083,
  "\u2581c\u00f4t\u00e9": 3084,
  "tiva": 3085,
  "/5": 3086,
  "iste": 3087,
  "4/": 3088,
  "stra": 3089,
  "if": 3090,
  "\u2581conclusiones": 3091,
  "\u2581intercambio": 3092,
  "\u258141": 3093,
  "\u2581reserva": 3094,
  "\u2581distribuci\u00f3n": 3095,
  "\u2581Division": 3096,
  "\u2581desea": 3097,
  "\u2581incluido": 3098,
  "\u2581exige": 3099,
  "\u2581meilleur": 3100,
  "\u2581mati\u00e8res": 3101,
  "\u258159": 3102,
  "\u2581cons\u00e9quence": 3103,
  "\u2581500": 3104,
  "\u2581Banco": 3105,
  "\u2581cons\u00e9quences": 3106,
  "\u2581pe": 3107,
  "pro": 3108,
  "bel": 3109,
  "cio": 3110,
  "ds": 3111,
  "\u2581miras": 3112,
  "Al": 3113,
  "\u258132": 3114,
  "\u2581transfert": 3115,
  "\u2581Nombre": 3116,
  "\u2581possibilit\u00e9s": 3117,
  "\u2581registro": 3118,
  "bles": 3119,
  "\u2581exp\u00e9rience": 3120,
  "\u2581durant": 3121,
  "\u2581humaines": 3122,
  "\u2581Win": 3123,
  "\u2581lesquels": 3124,
  "ster": 3125,
  "\u2581hu": 3126,
  "\u2581drogas": 3127,
  "\u2581eau": 3128,
  "\u2581retour": 3129,
  "\u2581qui\u00e9n": 3130,
  "\u2581Ministre": 3131,
  "\u2581explotaci\u00f3n": 3132,
  "\u2581Democr\u00e1tica": 3133,
  "\u2581econ\u00f3micas": 3134,
  "r\u00e1n": 3135,
  "\u2581jeu": 3136,
  "\u2581alcance": 3137,
  "\u2581super": 3138,
  "\u2581Total": 3139,
  "gui": 3140,
  "\u2581pidi\u00f3": 3141,
  "\u2581posibles": 3142,
  "\u2581familles": 3143,
  "\u2581vigilancia": 3144,
  "\u2581toutefois": 3145,
  "\u2581primero": 3146,
  "\u2581escuelas": 3147,
  "c\u00e9": 3148,
  "\u2581Tous": 3149,
  "\u2581\u00e9laboration": 3150,
  "\u2581Puede": 3151,
  "\u2581trafic": 3152,
  "\u2581pena": 3153,
  "\u2581\u00e9lev\u00e9": 3154,
  "\u2581autant": 3155,
  "onform\u00e9ment": 3156,
  "\u2581amor": 3157,
  "\u2581sources": 3158,
  "\u2581meilleure": 3159,
  "\u2581consiste": 3160,
  "\u2581conseil": 3161,
  "\u2581utilis\u00e9": 3162,
  "\u2581opiniones": 3163,
  "appui": 3164,
  "cur": 3165,
  "\u2581eliminaci\u00f3n": 3166,
  "\u2581garde": 3167,
  "\u2581tasa": 3168,
  "\u2581chacun": 3169,
  "\u258112.": 3170,
  "\u258153": 3171,
  "\u2581surtout": 3172,
  "\u2581sup\u00e9rieur": 3173,
  "\u2581Wi": 3174,
  "\u2581presencia": 3175,
  "\u25816,": 3176,
  "\u2581cree": 3177,
  "ye": 3178,
  "\u2581Espa\u00f1a": 3179,
  "\u2581Chambre": 3180,
  "\u2581--": 3181,
  "\u2581m\u00e1ximo": 3182,
  "\u2581Rwanda": 3183,
  "\u2581figurant": 3184,
  "7": 3185,
  "sar": 3186,
  "\u2581conseguir": 3187,
  "eurs": 3188,
  "\u2581bou": 3189,
  "\u258165": 3190,
  "\u2581voulez": 3191,
  "\u2581Federaci\u00f3n": 3192,
  "\u2581quant": 3193,
  "\u2581pr\u00eat": 3194,
  "log": 3195,
  "\u2581pouvoirs": 3196,
  "\u2581tengan": 3197,
  "\u2581rend": 3198,
  "ek": 3199,
  "isation": 3200,
  "and": 3201,
  "\u2581contribuci\u00f3n": 3202,
  "AL": 3203,
  "\u2581fomento": 3204,
  "\u2581discapacidad": 3205,
  "ki": 3206,
  "\u2581instrumento": 3207,
  "otre": 3208,
  "\u2581grands": 3209,
  "\u2581langue": 3210,
  "\u2581dificultades": 3211,
  "\u2581juego": 3212,
  "\u2581Banque": 3213,
  "\u2581plut\u00f4t": 3214,
  "\u2581administratives": 3215,
  "\u2581mg": 3216,
  "g\u00e9": 3217,
  "\u2581comprendre": 3218,
  "\u2581oficina": 3219,
  "\u2581motivos": 3220,
  "\u2581llama": 3221,
  "\u2581adopt\u00e9e": 3222,
  "\u2581Charte": 3223,
  "0.000": 3224,
  "\u2581types": 3225,
  "tura": 3226,
  "\u2581satisfaction": 3227,
  "\u2581cons\u00e9quent": 3228,
  "ront": 3229,
  "\u2581elecciones": 3230,
  "a\u00ef": 3231,
  "\u2581Mer": 3232,
  "\u2581Directeur": 3233,
  "\u2581asunto": 3234,
  "\u2581Gen\u00e8ve": 3235,
  "\u2581na": 3236,
  "\u2581tuvo": 3237,
  "bas": 3238,
  "\u2581\u00fanica": 3239,
  "\u2581realizaci\u00f3n": 3240,
  "\u2581cuarto": 3241,
  "\u2581modalit\u00e9s": 3242,
  "programme": 3243,
  "\u2581pod\u00eda": 3244,
  "18": 3245,
  "\u2581cou": 3246,
  "\u2581present\u00f3": 3247,
  "\u2581Porque": 3248,
  "\u2581Ginebra": 3249,
  "\u2581estructura": 3250,
  "\u2581DEL": 3251,
  "\u2581presenta": 3252,
  "\u2581formular": 3253,
  "\u2581M\u00e1s": 3254,
  "\u2581Service": 3255,
  "\u2581communications": 3256,
  "\u2581pr\u00e9venir": 3257,
  "\u2581tribunales": 3258,
  "\u2581fuentes": 3259,
  "\u2581recommandation": 3260,
  "\u2581claro": 3261,
  "\u2581assez": 3262,
  "ice": 3263,
  "\u2581intention": 3264,
  "\u25811990": 3265,
  "\u2581violation": 3266,
  "avez": 3267,
  "\u2581importants": 3268,
  "ama": 3269,
  "D\u00f3nde": 3270,
  "\u2581tecnolog\u00edas": 3271,
  "\u2581interna": 3272,
  "\u2581seraient": 3273,
  "ob": 3274,
  "\u2581tru": 3275,
  "\u2581Office": 3276,
  "TA": 3277,
  "Si": 3278,
  "\u2581adoptado": 3279,
  "\u2581vient": 3280,
  "hab": 3281,
  "\u2581applicables": 3282,
  "\u2581decidi\u00f3": 3283,
  "mes": 3284,
  "\u2581p\u00e9nal": 3285,
  "gli": 3286,
  "\u2581euro": 3287,
  "\u2581adopter": 3288,
  "ales": 3289,
  "\u2581devait": 3290,
  "origine": 3291,
  "\u2581petite": 3292,
  "\u2581recomendaci\u00f3n": 3293,
  "PA": 3294,
  "\u2581lumi\u00e8re": 3295,
  "ze": 3296,
  "\u258114.": 3297,
  "Se": 3298,
  "\u2581visita": 3299,
  "\u2581t\u00eate": 3300,
  "\u2581Gen": 3301,
  "\u2581quienes": 3302,
  "\u2581Pi": 3303,
  "\u2581asimismo": 3304,
  "del": 3305,
  "\u2581coraz\u00f3n": 3306,
  "fo": 3307,
  "\u2581petits": 3308,
  "\u2581m\u00e9dico": 3309,
  "\u2581amenaza": 3310,
  "US": 3311,
  "15": 3312,
  "den": 3313,
  "\u2581letra": 3314,
  "toi": 3315,
  "\u2581actuelle": 3316,
  "\u2581fondamentaux": 3317,
  "ible": 3318,
  "\u2581Milenio": 3319,
  "endo": 3320,
  "remos": 3321,
  "12": 3322,
  "58": 3323,
  "\u2581competentes": 3324,
  "\u2581tableau": 3325,
  "\u2581r\u00e9gionale": 3326,
  "\u2581instalaciones": 3327,
  "\u2581naturales": 3328,
  "\u2581rural": 3329,
  "\u2581inversiones": 3330,
  "\u2581carga": 3331,
  "\u2581Despu\u00e9s": 3332,
  "\u2581conocer": 3333,
  "\u2581Gra": 3334,
  "\u2581clairement": 3335,
  "\u25811998,": 3336,
  "\u2581Elles": 3337,
  "\u2581\u00e9crit": 3338,
  "\u2581Chi": 3339,
  "\u2581page": 3340,
  "\u2581JO": 3341,
  "\u2581siguen": 3342,
  "\u2581Ru": 3343,
  "2/": 3344,
  "27": 3345,
  "\u2581Enfin": 3346,
  "sto": 3347,
  "\u2581Ri": 3348,
  "\u2581Norte": 3349,
  "una": 3350,
  "\u2581jur\u00eddico": 3351,
  "\u2581Cu": 3352,
  "\u2581venta": 3353,
  "\u2581changement": 3354,
  "\u00e9galit\u00e9": 3355,
  "lan": 3356,
  "1/": 3357,
  "ct": 3358,
  "sse": 3359,
  "\u2581Divisi\u00f3n": 3360,
  "\u2581f\u00e9licite": 3361,
  "\u2581chambre": 3362,
  "om": 3363,
  "\u2581apporter": 3364,
  "\u2581jur\u00eddica": 3365,
  "\u2581EUR": 3366,
  "\u2581Cependant": 3367,
  "\u2581necesaria": 3368,
  "\u2581Cooperaci\u00f3n": 3369,
  "\u2581menor": 3370,
  "\u2581DU": 3371,
  "\u2581ensuite": 3372,
  "\u2581Mujer": 3373,
  "\u2581eliminar": 3374,
  "\u2581travailler": 3375,
  "\u2581auteurs": 3376,
  "lle": 3377,
  "\u2581contact": 3378,
  "\u2581Am": 3379,
  "55": 3380,
  "\u258164": 3381,
  "\u2581semaine": 3382,
  "\u2581Com": 3383,
  "5": 3384,
  "DA": 3385,
  "\u2581b\u00e1sicos": 3386,
  "nce": 3387,
  "\u2581mejora": 3388,
  "ach": 3389,
  "\u2581populaire": 3390,
  "ding": 3391,
  "\u2581vente": 3392,
  "\u258113.": 3393,
  "\u2581India": 3394,
  "our": 3395,
  "\u2581naturaleza": 3396,
  "\u2581adopt\u00e9es": 3397,
  "\u2581atteindre": 3398,
  "\u2581fiscal": 3399,
  "\u2581mariage": 3400,
  "\u25812010,": 3401,
  "i\u00e8me": 3402,
  "\u2581\u00e2ge": 3403,
  "\u2581\u00e9limination": 3404,
  "\u2581p\u00fablicas": 3405,
  "\u258161": 3406,
  "\u2581paso": 3407,
  "\u2581micro": 3408,
  "\u2581dispone": 3409,
  "\u2581Ga": 3410,
  "oli": 3411,
  "iendo": 3412,
  "\u2581transition": 3413,
  "\u2581conocimiento": 3414,
  "\u2581elaborar": 3415,
  "\u2581respecter": 3416,
  "\u2581quelle": 3417,
  "mas": 3418,
  "CC": 3419,
  "\u2581determinaci\u00f3n": 3420,
  "\u2581recommand\u00e9": 3421,
  "Q": 3422,
  "\u2581m\u00ednimo": 3423,
  "its": 3424,
  "\u2581For": 3425,
  "\u2581technologie": 3426,
  "\u2581ex\u00e9cutif": 3427,
  "tter": 3428,
  "9/": 3429,
  "har": 3430,
  "\u2581solicitudes": 3431,
  "\u2581bases": 3432,
  "\u2581m\u00eames": 3433,
  "Afrique": 3434,
  "\u2581\u00c9l": 3435,
  "wi": 3436,
  "49": 3437,
  "\u2581tri": 3438,
  "\u2581LE": 3439,
  "cal": 3440,
  "\u2581F\u00e9d\u00e9ration": 3441,
  "h\u00f4tel": 3442,
  "\u2581razones": 3443,
  "\u2581r\u00e9aliser": 3444,
  "di\u00f3": 3445,
  "\u2581titulado": 3446,
  "ienta": 3447,
  "\u2581violaci\u00f3n": 3448,
  "\u2581conferencias": 3449,
  "\u2581aplicable": 3450,
  "\u2581Mira": 3451,
  "\u2581amigo": 3452,
  "\u2581go": 3453,
  "\u2581redes": 3454,
  "\u2581voyage": 3455,
  "\u2581peque\u00f1as": 3456,
  "UNICE": 3457,
  "ura": 3458,
  "\u2581voiture": 3459,
  "\u2581Jes\u00fas": 3460,
  "\u2581Ainsi": 3461,
  "\u2581\u00e9trangers": 3462,
  "\u2581rester": 3463,
  "\u2581pide": 3464,
  "amos": 3465,
  "oc": 3466,
  "\u2581vois": 3467,
  "\u2581Cumbre": 3468,
  "\u2581occasion": 3469,
  "\u2581emergencia": 3470,
  "\u2581conna\u00eetre": 3471,
  "\u2581hi": 3472,
  "\u2581interior": 3473,
  "\u2581amplio": 3474,
  "\u2581intitul\u00e9": 3475,
  "\u2581rendu": 3476,
  "\u2581alimentaire": 3477,
  "\u2581\u00e9trang\u00e8res": 3478,
  "ille": 3479,
  "tain": 3480,
  "\u2581chico": 3481,
  "\u2581cinquante": 3482,
  "\u2581situations": 3483,
  "\u2581plena": 3484,
  "\u25817,": 3485,
  "\u2581Pu": 3486,
  "\u2581votaci\u00f3n": 3487,
  "\u2581acte": 3488,
  "val": 3489,
  "\u2581comercial": 3490,
  "\u2581campo": 3491,
  "\u2581fi": 3492,
  "\u2581efficacit\u00e9": 3493,
  "\u2581consulta": 3494,
  "pre": 3495,
  "\u2581majorit\u00e9": 3496,
  "\u2581faible": 3497,
  "\u2581recibido": 3498,
  "\u2581traitements": 3499,
  "\u00f1a": 3500,
  "\u2581Soy": 3501,
  "\u2581Toma": 3502,
  "\u2581train": 3503,
  "zar": 3504,
  "tur": 3505,
  "\u2581comp": 3506,
  "\u2581milieu": 3507,
  "\u2581beneficios": 3508,
  "\u2581Irlanda": 3509,
  "\u2581satisfacci\u00f3n": 3510,
  "\u2581territoires": 3511,
  "\u2581soi": 3512,
  "\u2581Hu": 3513,
  "istas": 3514,
  "\u2581arabe": 3515,
  "antes": 3516,
  "\u2581foto": 3517,
  "\u2581voix": 3518,
  "\u258175": 3519,
  "\u2581prev\u00e9": 3520,
  "\u2581prop\u00f3sito": 3521,
  "/4": 3522,
  "\u2581importa": 3523,
  "\u2581\u00e9ste": 3524,
  "\u2581from": 3525,
  "Con": 3526,
  "\u2581asesoramiento": 3527,
  "rme": 3528,
  "\u2581fomentar": 3529,
  "\u2581porter": 3530,
  "\u2581conseils": 3531,
  "\u2581men\u00e9es": 3532,
  "cua": 3533,
  "\u2581donantes": 3534,
  "\u2581Asie": 3535,
  "\u2581Sierra": 3536,
  "\u2581est\u00e9n": 3537,
  "importance": 3538,
  "\u2581contribuir": 3539,
  "\u2581modelo": 3540,
  "\u2581confianza": 3541,
  "\u258196": 3542,
  "\u2581t\u00e9cnicas": 3543,
  "og": 3544,
  "ios": 3545,
  "Quiere": 3546,
  "\u2581culturales": 3547,
  "jour": 3548,
  "\u2581indispensable": 3549,
  "\u2581asociaci\u00f3n": 3550,
  "ub": 3551,
  "\u2581adicional": 3552,
  "\u2581transici\u00f3n": 3553,
  "od": 3554,
  "\u2581observa": 3555,
  "avait": 3556,
  "\u00ea": 3557,
  "\u2581Instituto": 3558,
  "for": 3559,
  "\u2581p\u00e1rrafos": 3560,
  "\u2581t\u00e9l\u00e9": 3561,
  "\u2581sp\u00e9ciales": 3562,
  "\u2581utilis\u00e9s": 3563,
  "ente": 3564,
  "\u25812005.": 3565,
  "\u25811995,": 3566,
  "\u2581Somme": 3567,
  "\u2581Estos": 3568,
  "assurer": 3569,
  "\u2581considerar": 3570,
  "avis": 3571,
  "\u2581concern\u00e9s": 3572,
  "21": 3573,
  "\u2581resolver": 3574,
  "\u2581valeurs": 3575,
  "\u2581preguntas": 3576,
  "IT": 3577,
  "ag": 3578,
  "\u2581sait": 3579,
  "\u2581principalmente": 3580,
  "king": 3581,
  "\u2581oficios": 3582,
  "\u2581priorit\u00e9": 3583,
  "\u2581camp": 3584,
  "\u2581Usted": 3585,
  "\u2581faite": 3586,
  "20": 3587,
  "\u2581vis": 3588,
  "\u2581supuesto": 3589,
  "\u2581proc\u00e8s": 3590,
  "\u00e9tat": 3591,
  "/1": 3592,
  "ros": 3593,
  "\u2581engagement": 3594,
  "\u2581sexe": 3595,
  "\u2581entreprise": 3596,
  "\u2581Paul": 3597,
  "\u2581genre": 3598,
  "\u2581commis": 3599,
  "\u2581consumo": 3600,
  "\u2581responsabilit\u00e9s": 3601,
  "\u2581carte": 3602,
  "\u2581applicable": 3603,
  "\u2581affaire": 3604,
  "\u2581juge": 3605,
  "\u2581se\u00f1al\u00f3": 3606,
  "\u2581\u00e9lections": 3607,
  "\u2581John": 3608,
  "\u2581entorno": 3609,
  "\u2581hacen": 3610,
  "\u2581post": 3611,
  "\u2581fil": 3612,
  "\u2581orientaci\u00f3n": 3613,
  "ix": 3614,
  "\u2581strat\u00e9gique": 3615,
  "\u2581prioridades": 3616,
  "\u2581priorit\u00e9s": 3617,
  "\u258133": 3618,
  "\u25811991": 3619,
  "1,": 3620,
  "\u25811997,": 3621,
  "mb": 3622,
  "\u2581defensa": 3623,
  "\u2581pr\u00e9sentation": 3624,
  "vie": 3625,
  "\u2581escuela": 3626,
  "\u2581Pays": 3627,
  "\u2581Jap\u00f3n": 3628,
  "ord": 3629,
  "\u2581vis\u00e9es": 3630,
  "don": 3631,
  "\u2581300": 3632,
  "\u2581laisser": 3633,
  "\u2581essentiel": 3634,
  "\u2581cr\u00e9dito": 3635,
  "rra": 3636,
  "\u2581ac": 3637,
  "\u2581Tor": 3638,
  "\u2581africaine": 3639,
  "\u2581hechos": 3640,
  "\u2581dirigida": 3641,
  "\u2581resulta": 3642,
  "\u2581COM": 3643,
  "\u2581Estas": 3644,
  "\u2581convention": 3645,
  "\u25811994,": 3646,
  "adoption": 3647,
  "\u25811996,": 3648,
  "\u2581urgence": 3649,
  "av": 3650,
  "\u2581longtemps": 3651,
  "\u2581d\u00e9finition": 3652,
  "\u2581habr\u00eda": 3653,
  "\u2581Solo": 3654,
  "\u2581hotel": 3655,
  "\u2581profesionales": 3656,
  "\u2581cent": 3657,
  "nd": 3658,
  "\u2581insta": 3659,
  "my": 3660,
  "\u2581loin": 3661,
  "\u2581comunes": 3662,
  "fr": 3663,
  "enseignement": 3664,
  "\u2581cat\u00e9gorie": 3665,
  "73": 3666,
  "\u2581tratar": 3667,
  "eva": 3668,
  "part": 3669,
  "ava": 3670,
  "\u2581completa": 3671,
  "Me": 3672,
  "\u258115.": 3673,
  "\u2581realizado": 3674,
  "\u2581ju": 3675,
  "\u258162": 3676,
  "\u2581\u20ac": 3677,
  "\u00e2": 3678,
  "\u258151": 3679,
  "\u2581sang": 3680,
  "\u2581m\u00e9dias": 3681,
  "\u2581viaje": 3682,
  "47": 3683,
  "\u2581evaluar": 3684,
  "\u2581aire": 3685,
  "\u2581structure": 3686,
  "ld": 3687,
  "\u2581char": 3688,
  "\u2581Tene": 3689,
  "Com": 3690,
  "45": 3691,
  "\u2581debemos": 3692,
  "\u2581t\u00e9rminos": 3693,
  "\u2581\u00e9conomie": 3694,
  "\u2581universal": 3695,
  "organisation": 3696,
  "\u2581contrato": 3697,
  "\u2581distintas": 3698,
  "\u2581tareas": 3699,
  "\u2581cap\u00edtulo": 3700,
  "/2": 3701,
  "26": 3702,
  "assistance": 3703,
  "AR": 3704,
  "\u2581abordar": 3705,
  "\u2581S\u00e9": 3706,
  "\u2581approuv\u00e9": 3707,
  "\u2581cuerpo": 3708,
  "\u2581raciale": 3709,
  "fu": 3710,
  "\u2581f\u00e1cil": 3711,
  "\u2581,\"": 3712,
  "\u2581investissements": 3713,
  "\u2581Pol\u00edtica": 3714,
  "\u2581comprend": 3715,
  "sis": 3716,
  "industrie": 3717,
  "ami": 3718,
  "\u2581contrataci\u00f3n": 3719,
  "\u2581terceros": 3720,
  "\u2581\u00f3rgano": 3721,
  "\u2581cha": 3722,
  "\u2581Notre": 3723,
  "mon": 3724,
  "cos": 3725,
  "\u2581conf\u00e9rences": 3726,
  "\u2581ter": 3727,
  "\u2581chefs": 3728,
  "\u2581motivo": 3729,
  "\u2581agissant": 3730,
  "\u2581publication": 3731,
  "\u2581tribunaux": 3732,
  "\u2581tour": 3733,
  "\u2581mot": 3734,
  "\u2581Lu": 3735,
  "enfant": 3736,
  "\u2581peligro": 3737,
  "\u2581r\u00e9cemment": 3738,
  "\u2581consid\u00e9r\u00e9e": 3739,
  "\u2581pacientes": 3740,
  "\u2581demanda": 3741,
  "\u2581religion": 3742,
  "\u2581lutter": 3743,
  "\u00e9tablissement": 3744,
  "\u00e8me": 3745,
  "\u2581prevenir": 3746,
  "\u2581mismos": 3747,
  "\u2581\u00e9viter": 3748,
  "\u2581ment": 3749,
  "\u2581communautaires": 3750,
  "\u2581\u00fanicamente": 3751,
  "\u2581im": 3752,
  "\u2581Canada": 3753,
  "para": 3754,
  "\u2581parole": 3755,
  "70": 3756,
  "\u2581c\u0153ur": 3757,
  "cas": 3758,
  "\u2581inicial": 3759,
  "\u2581Char": 3760,
  "bar": 3761,
  "6,": 3762,
  "ien": 3763,
  "\u2581dix": 3764,
  "\u2581resto": 3765,
  "\u2581langues": 3766,
  "\u2581contrat": 3767,
  "\u2581independencia": 3768,
  "\u2581ofrecer": 3769,
  "\u2581connaissances": 3770,
  "\u2581voluntad": 3771,
  "\u2581proliferaci\u00f3n": 3772,
  "tique": 3773,
  "\u2581commenc\u00e9": 3774,
  "\u2581d\u00e9velopper": 3775,
  "\u2581animales": 3776,
  "red": 3777,
  "\u2581particuli\u00e8re": 3778,
  "\u2581mener": 3779,
  "\u2581Human": 3780,
  "\u2581stabilit\u00e9": 3781,
  "\u2581Har": 3782,
  "\u2581Salud": 3783,
  "99": 3784,
  "\u2581Canad\u00e1": 3785,
  "\u2581clase": 3786,
  "\u2581factores": 3787,
  "\u2581Ko": 3788,
  "\u2581contraire": 3789,
  "\u2581doute": 3790,
  "\u2581id\u00e9e": 3791,
  "\u2581garanties": 3792,
  "\u2581solutions": 3793,
  "ations": 3794,
  "\u2581representa": 3795,
  "\u2581territorios": 3796,
  "\u2581europea": 3797,
  "\u2581mucha": 3798,
  "\u2581mari": 3799,
  "\u2581dat\u00e9e": 3800,
  "\u258116.": 3801,
  "\u2581adecuada": 3802,
  "MI": 3803,
  "\u2581equipos": 3804,
  "\u2581Timor": 3805,
  "\u2581adress\u00e9e": 3806,
  "\u2581pertinente": 3807,
  "\u2581Jefe": 3808,
  "80": 3809,
  "38": 3810,
  "\u25811993,": 3811,
  "\u2581marche": 3812,
  "xa": 3813,
  "\u2581alin\u00e9a": 3814,
  "\u2581consommation": 3815,
  "\u2581vise": 3816,
  "\u2581d\u00f3nde": 3817,
  "\u2581fort": 3818,
  "\u2581ustedes": 3819,
  "\u2581vas": 3820,
  "\u2581montre": 3821,
  "\u2581exigences": 3822,
  "\u2581efficaces": 3823,
  "\u2581investigaciones": 3824,
  "\u2581determinados": 3825,
  "\u2581relevant": 3826,
  "\u2581David": 3827,
  "\u2581Mor": 3828,
  "\u2581\u00e9coles": 3829,
  "\u2581Tal": 3830,
  "\u2581deuda": 3831,
  "\u2581alimentos": 3832,
  "\u2581grado": 3833,
  "\u2581Servicio": 3834,
  "\u2581source": 3835,
  "\u2581g\u00e9n\u00e9raux": 3836,
  "\u2581connaissance": 3837,
  "\u2581organis\u00e9": 3838,
  "dora": 3839,
  "\u2581Lorsque": 3840,
  "mm": 3841,
  "\u2581esencial": 3842,
  "\u2581oui": 3843,
  "\u2581completo": 3844,
  "\u2581armados": 3845,
  "\u2581Roma": 3846,
  "\u2581humano": 3847,
  "\u2581cambiar": 3848,
  "\u2581dichos": 3849,
  "\u2581phase": 3850,
  "\u2581efectivo": 3851,
  "\u2581entit\u00e9s": 3852,
  "\u2581publicaci\u00f3n": 3853,
  "\u2581Ki": 3854,
  "\u2581modifier": 3855,
  "\u2581fu": 3856,
  "\u2581pesca": 3857,
  "\u2581trans": 3858,
  "\u2581donateurs": 3859,
  "5/": 3860,
  "\u2581dio": 3861,
  "\u2581realizados": 3862,
  "\u2581normal": 3863,
  "ker": 3864,
  "\u2581route": 3865,
  "\u2581Otros": 3866,
  "\u2581humanitaria": 3867,
  "\u2581humaine": 3868,
  "\u2581deb\u00eda": 3869,
  "\u2581reforzar": 3870,
  "\u2581peque\u00f1os": 3871,
  "\u2581transferencia": 3872,
  "mul": 3873,
  "\u2581tratado": 3874,
  "\u2581cultura": 3875,
  "\u2581Corea": 3876,
  "\u2581cependant": 3877,
  "\u2581prioridad": 3878,
  "\u25812015": 3879,
  "\u2581constituent": 3880,
  "\u2581sanctions": 3881,
  "\u2581encourager": 3882,
  "gre": 3883,
  "5,": 3884,
  "\u2581lleva": 3885,
  "\u2581fou": 3886,
  "\u2581desarrollar": 3887,
  "\u2581duraci\u00f3n": 3888,
  "\u2581Ab": 3889,
  "\u2581Vo": 3890,
  "\u2581favoriser": 3891,
  "bili": 3892,
  "berg": 3893,
  "\u2581code": 3894,
  "\u2581reservas": 3895,
  "issez": 3896,
  "mail": 3897,
  "\u2581Paris": 3898,
  "\u2581utile": 3899,
  "\u2581muestra": 3900,
  "\u2581d\u00e9mocratie": 3901,
  "\u2581Im": 3902,
  "ign": 3903,
  "\u2581obligation": 3904,
  "\u2581sortir": 3905,
  "\u2581media": 3906,
  "\u2581mod\u00e8le": 3907,
  "\u2581propri\u00e9t\u00e9": 3908,
  "\u2581comp\u00e9tence": 3909,
  "\u2581clientes": 3910,
  "\u2581Cap": 3911,
  "46": 3912,
  "ring": 3913,
  "24": 3914,
  "\u2581mm": 3915,
  "\u2581officiel": 3916,
  "dia": 3917,
  "\u2581\u00e9laborer": 3918,
  "\u2581indicadores": 3919,
  "\u2581mises": 3920,
  "\u2581uniquement": 3921,
  "\u2581fourni": 3922,
  "\u2581internos": 3923,
  "\u2581num\u00e9ro": 3924,
  "euses": 3925,
  "\u2581revenu": 3926,
  "\u2581vont": 3927,
  "\u2581chambres": 3928,
  "\u2581usar": 3929,
  "4,": 3930,
  "\u2581establecidos": 3931,
  "\u258163": 3932,
  "\u2581humana": 3933,
  "\u2581publi\u00e9": 3934,
  "\u2581revisi\u00f3n": 3935,
  "\u2581auteur": 3936,
  "\u2581]": 3937,
  "\u2581Vol": 3938,
  "nia": 3939,
  "\u2581cr\u00e9dits": 3940,
  "\u25812006.": 3941,
  "\u2581repr\u00e9sente": 3942,
  "\u25812011,": 3943,
  "\u2581pouvait": 3944,
  "\u2581preparar": 3945,
  "\u2581liens": 3946,
  "\u2581difusi\u00f3n": 3947,
  "\u2581souhaite": 3948,
  "\u2581Gar": 3949,
  "\u2581semanas": 3950,
  "\u2581Reuni\u00f3n": 3951,
  "\u2581clave": 3952,
  "\u2581peur": 3953,
  "\u2581pobres": 3954,
  "\u2581espec\u00edficas": 3955,
  "\u2581estabilidad": 3956,
  "\u2581Q": 3957,
  "\u2581diferencia": 3958,
  "\u2581existen": 3959,
  "\u2581permitir": 3960,
  "\u2581ambos": 3961,
  "\u2581ocupa": 3962,
  "\u2581Relacion": 3963,
  "\u00e9gard": 3964,
  "\u2581Comercio": 3965,
  "\u2581budg\u00e9taires": 3966,
  "lie": 3967,
  "\u2581destin\u00e9s": 3968,
  "\u2581cul": 3969,
  "\u2581crimes": 3970,
  "\u2581marchandises": 3971,
  "\u2581caf\u00e9": 3972,
  "\u2581Sud\u00e1n": 3973,
  "\u2581tu\u00e9": 3974,
  "\u2581posibilidades": 3975,
  "\u2581ami": 3976,
  "gal": 3977,
  "\u2581\u00e9quipe": 3978,
  "\u2581Central": 3979,
  "\u2581cultural": 3980,
  "\u2581Foro": 3981,
  "siones": 3982,
  "\u2581duda": 3983,
  "\u2581Espera": 3984,
  "3/": 3985,
  "ador": 3986,
  "\u2581quatri\u00e8me": 3987,
  "\u2581contient": 3988,
  "\u00e8": 3989,
  "\u2581foi": 3990,
  "\u2581arm\u00e9s": 3991,
  "\u2581savez": 3992,
  "\u2581r\u00e9seaux": 3993,
  "\u2581traiter": 3994,
  "\u2581facteurs": 3995,
  "\u2581exportaci\u00f3n": 3996,
  "\u2581\u00e9changes": 3997,
  "\u2581chance": 3998,
  "\u2581r\u00e9alit\u00e9": 3999,
  "\u2581presse": 4000,
  "abord": 4001,
  "\u2581serio": 4002,
  "\u2581esprit": 4003,
  "\u2581sud": 4004,
  "\u2581imm\u00e9diatement": 4005,
  "\u2581figure": 4006,
  "\u2581doble": 4007,
  "\u2581contiene": 4008,
  "informations": 4009,
  "\u2581amigos": 4010,
  "\u2581initiative": 4011,
  "\u2581Tras": 4012,
  "\u2581Ste": 4013,
  "\u2581g\u00e9n\u00e9rales": 4014,
  "uel": 4015,
  "q": 4016,
  "\u2581constante": 4017,
  "\u2581cabeza": 4018,
  "\u2581culturels": 4019,
  "\u2581pr\u00e9vue": 4020,
  "\u2581drogues": 4021,
  "\u2581pouvons": 4022,
  "\u2581comit\u00e9s": 4023,
  "\u2581parle": 4024,
  "ones": 4025,
  "\u2581asociaciones": 4026,
  "\u2581propone": 4027,
  "\u2581europ\u00e9ennes": 4028,
  "\u2581celebrar": 4029,
  "d\u00f3n": 4030,
  "\u2581dichas": 4031,
  "\u2581Ve": 4032,
  "\u2581perspectiva": 4033,
  "\u2581Note": 4034,
  "\u2581se\u00f1ala": 4035,
  "\u2581categor\u00edas": 4036,
  "\u2581humanitaires": 4037,
  "ei": 4038,
  "\u2581pourra": 4039,
  "\u2581matrimonio": 4040,
  "\u2581int\u00e9gration": 4041,
  "\u2581particip\u00e9": 4042,
  "bor": 4043,
  "\u2581ayudas": 4044,
  "\u2581Rappel": 4045,
  "\u2581Japon": 4046,
  "\u2581estar\u00e1": 4047,
  "\u2581Muy": 4048,
  "\u2581vivre": 4049,
  "\u2581Presidencia": 4050,
  "\u2581double": 4051,
  "\u2581terres": 4052,
  "cher": 4053,
  "ian": 4054,
  "\u2581minorit\u00e9s": 4055,
  "\u2581menudo": 4056,
  "ime": 4057,
  "\u2581Cet": 4058,
  "\u2581Gaza": 4059,
  "\u2581conclusi\u00f3n": 4060,
  "\u2581clients": 4061,
  "\u2581x": 4062,
  "\u2581(1)": 4063,
  "\u2581pr\u00f3ximo": 4064,
  "\u2581Cal": 4065,
  "til": 4066,
  "\u2581moyenne": 4067,
  "\u2581destino": 4068,
  "\u2581art": 4069,
  "\u2581derniers": 4070,
  "29": 4071,
  "\u2581propios": 4072,
  "objectif": 4073,
  "\u2581mineurs": 4074,
  "\u2581puissent": 4075,
  "\u2581menace": 4076,
  "\u2581Educaci\u00f3n": 4077,
  "\u2581ga": 4078,
  "ell": 4079,
  "\u2581g\u00e9n\u00e9ralement": 4080,
  "\u2581not\u00e9": 4081,
  "\u2581annuel": 4082,
  "\u2581port\u00e9e": 4083,
  "\u2581veh\u00edculos": 4084,
  "\u2581existencia": 4085,
  "\u2581r\u00e1pido": 4086,
  "\u2581m\u00edo": 4087,
  "\u2581pauvres": 4088,
  "\u2581d\u00e9chets": 4089,
  "one": 4090,
  "\u2581consultation": 4091,
  "\u2581naturelles": 4092,
  "\u2581celebraci\u00f3n": 4093,
  "39": 4094,
  "\u2581claramente": 4095,
  "\u2581Costa": 4096,
  "\u2581indique": 4097,
  "\u2581parvenir": 4098,
  "23": 4099,
  "\u2581salir": 4100,
  "\u2581costos": 4101,
  "\u2581oriental": 4102,
  "\u2581champ": 4103,
  "\u2581appel\u00e9": 4104,
  "\u2581soutenir": 4105,
  "\u2581Ese": 4106,
  "\u2581globale": 4107,
  "35": 4108,
  "\u2581Em": 4109,
  "\u2581se\u00f1alar": 4110,
  "\u2581principalement": 4111,
  "RC": 4112,
  "\u2581pronto": 4113,
  "8/": 4114,
  "\u2581incluyen": 4115,
  "\u2581textes": 4116,
  "2.": 4117,
  "\u2581si\u00e8ge": 4118,
  "\u2581inferior": 4119,
  "\u2581prohibici\u00f3n": 4120,
  "\u2581Force": 4121,
  "\u2581contenu": 4122,
  "\u2581substances": 4123,
  "\u2581maladie": 4124,
  "\u2581Aqu\u00ed": 4125,
  "\u2581semaines": 4126,
  "\u2581physique": 4127,
  "\u2581efectiva": 4128,
  "\u2581tient": 4129,
  "SR": 4130,
  "13": 4131,
  "Ha": 4132,
  "\u2581Australia": 4133,
  "\u2581recuperaci\u00f3n": 4134,
  "\u2581instrument": 4135,
  "lor": 4136,
  "\u2581m\u00e9thode": 4137,
  "\u2581respuestas": 4138,
  "\u2581r\u00e9alis\u00e9s": 4139,
  "\u2581migrants": 4140,
  "\u2581definici\u00f3n": 4141,
  "\u2581mayores": 4142,
  "\u2581fase": 4143,
  "\u2581MIN": 4144,
  "\u2581interno": 4145,
  "bia": 4146,
  "\u2581ten": 4147,
  "\u2581Fue": 4148,
  "\u2581N\u00famero": 4149,
  "\u2581causas": 4150,
  "\u2581v\u00e9rit\u00e9": 4151,
  "\u2581actuales": 4152,
  "\u2581adelante": 4153,
  "\u2581compter": 4154,
  "sti": 4155,
  ".2": 4156,
  "\u2581preciso": 4157,
  "\u2581sexo": 4158,
  "\u2581Hace": 4159,
  "ick": 4160,
  "\u2581concretas": 4161,
  "\u2581institucional": 4162,
  "\u2581haute": 4163,
  "\u2581gaz": 4164,
  "cus": 4165,
  "\u2581importaci\u00f3n": 4166,
  "\u258192": 4167,
  "\u2581Quelle": 4168,
  "\u2581campagne": 4169,
  "ij": 4170,
  "\u2581mil": 4171,
  "\u2581Marco": 4172,
  "\u2581minas": 4173,
  "\u2581rue": 4174,
  "\u2581conclu": 4175,
  "\u2581matar": 4176,
  "\u2581proc\u00e9der": 4177,
  "\u2581destruction": 4178,
  "\u2581comp\u00e9tentes": 4179,
  "\u2581perdu": 4180,
  "\u2581men": 4181,
  "\u2581compl\u00e8te": 4182,
  "\u2581\u00e9sta": 4183,
  "\u25811)": 4184,
  "\u2581aplicables": 4185,
  "entreprise": 4186,
  "ys": 4187,
  "vel": 4188,
  "75": 4189,
  "\u2581gratuit": 4190,
  "\u2581chimiques": 4191,
  "\u2581patients": 4192,
  "\u2581previstas": 4193,
  "\u2581determinadas": 4194,
  "int\u00e9rieur": 4195,
  "Lo": 4196,
  "\u2581Ti": 4197,
  "\u25812012,": 4198,
  "\u2581Ejecutivo": 4199,
  "\u2581fer": 4200,
  "AT": 4201,
  "\u2581prie": 4202,
  "\u2581Burundi": 4203,
  "aurais": 4204,
  "\u25812)": 4205,
  "\u2581sensibilisation": 4206,
  "\u2581cuotas": 4207,
  "\u2581usuarios": 4208,
  "\u2581combatir": 4209,
  "\u2581fut": 4210,
  "\u2581sanciones": 4211,
  "nn": 4212,
  "\u2581Mat": 4213,
  "\u2581encargado": 4214,
  "\u2581allez": 4215,
  "\u2581rappelle": 4216,
  "\u2581paiement": 4217,
  "ture": 4218,
  "\u2581mitad": 4219,
  "DH": 4220,
  "tin": 4221,
  "\u2581mauvais": 4222,
  "\u2581conmigo": 4223,
  "\u2581petici\u00f3n": 4224,
  "\u25818,": 4225,
  "\u2581entend": 4226,
  "\u2581lignes": 4227,
  "\u2581circonstances": 4228,
  "\u2581utiliza": 4229,
  "\u2581consid\u00e9rant": 4230,
  "\u2581donn\u00e9e": 4231,
  "\u25812004.": 4232,
  "\u2581Cor\u00e9e": 4233,
  "\u2581origine": 4234,
  "7,": 4235,
  "\u2581ouvert": 4236,
  "\u2581Asociaci\u00f3n": 4237,
  "\u2581CON": 4238,
  "\u2581yeux": 4239,
  "pen": 4240,
  "\u2581inform\u00f3": 4241,
  "\u2581Kar": 4242,
  "\u2581contar": 4243,
  "37": 4244,
  "ani": 4245,
  "\u2581obra": 4246,
  "\u2581hors": 4247,
  "\u2581recevoir": 4248,
  "\u2581orador": 4249,
  "\u2581comunitaria": 4250,
  "\u2581fuerte": 4251,
  "\u2581facultatif": 4252,
  "://": 4253,
  "\u2581comunitario": 4254,
  "\u2581probable": 4255,
  "\u2581Afganist\u00e1n": 4256,
  "PR": 4257,
  "i\u00f3": 4258,
  "\u2581fond\u00e9e": 4259,
  "\u2581partenariat": 4260,
  "48": 4261,
  "ST": 4262,
  "taci\u00f3n": 4263,
  "Sabe": 4264,
  "cr\u00e9": 4265,
  "tivos": 4266,
  "\u2581diez": 4267,
  "uer": 4268,
  "\u2581enqu\u00eates": 4269,
  "\u2581iii": 4270,
  "appelle": 4271,
  "IC": 4272,
  "ch\u00e9": 4273,
  "xi": 4274,
  "\u2581Ejecutiva": 4275,
  "\u2581commerciales": 4276,
  "\u2581activos": 4277,
  "\u2581extranjeros": 4278,
  "\u2581sou": 4279,
  "\u2581eficaces": 4280,
  "Ma": 4281,
  "\u2581am\u00e9lioration": 4282,
  "\u258185": 4283,
  "yo": 4284,
  "net": 4285,
  "af": 4286,
  "1)": 4287,
  "\u2581v\u00e9hicules": 4288,
  "Ivoire": 4289,
  "\u2581expresar": 4290,
  "\u2581M\u00e9xico": 4291,
  "\u2581diffusion": 4292,
  "pul": 4293,
  "\u2581Exteriores": 4294,
  "\u2581basado": 4295,
  "\u2581Loi": 4296,
  "\u2581feu": 4297,
  "ay": 4298,
  "iser": 4299,
  "efficacit\u00e9": 4300,
  "\u2581solamente": 4301,
  "heure": 4302,
  "\u2581enfrenta": 4303,
  "9,": 4304,
  "gas": 4305,
  "\u2581pri\u00e9": 4306,
  "\u2581amis": 4307,
  "\u2581volumen": 4308,
  "67": 4309,
  "\u2581vingt": 4310,
  "\u2581mas": 4311,
  "\u2581logement": 4312,
  "\u2581Donc": 4313,
  "\u2581avantages": 4314,
  "\u2581d\u00e9s": 4315,
  "ano": 4316,
  "\u2581exploitation": 4317,
  "\u00e9laboration": 4318,
  "\u2581installations": 4319,
  "\u2581dehors": 4320,
  "\u2581bastante": 4321,
  "\u2581electr\u00f3nico": 4322,
  "ling": 4323,
  "iers": 4324,
  "\u2581tirer": 4325,
  "\u2581indicateurs": 4326,
  "\u2581EE": 4327,
  "\u2581destrucci\u00f3n": 4328,
  "bis": 4329,
  "\u2581habr\u00e1": 4330,
  "exploitation": 4331,
  "\u2581garant\u00eda": 4332,
  "\u2581cabe": 4333,
  "\u2581active": 4334,
  "\u2581fuente": 4335,
  "\u2581natural": 4336,
  "\u2581her": 4337,
  "\u2581aplica": 4338,
  "\u2581Special": 4339,
  "\u2581gros": 4340,
  "\u2581Santa": 4341,
  "\u2581Cada": 4342,
  "\u2581especializados": 4343,
  "\u2581favorable": 4344,
  "\u2581UNCTAD": 4345,
  "\u2581estad\u00edsticas": 4346,
  "\u2581joue": 4347,
  "\u2581transparence": 4348,
  "\u2581pleno": 4349,
  "\u2581voulais": 4350,
  "\u2581llamar": 4351,
  "t\u00ed": 4352,
  "\u2581pr\u00e9sidence": 4353,
  "\u2581Ze": 4354,
  "wer": 4355,
  "\u2581d\u00e9sol\u00e9": 4356,
  "cina": 4357,
  "\u2581garant\u00edas": 4358,
  "\u2581commencer": 4359,
  "\u2581manos": 4360,
  "\u2581\u00e1mbitos": 4361,
  "\u2581R\u00e9union": 4362,
  "ung": 4363,
  "\u2581enfermedades": 4364,
  "COM": 4365,
  "\u2581charg\u00e9e": 4366,
  "\u2581mesa": 4367,
  "\u2581caract\u00e9ristique": 4368,
  "ast": 4369,
  "\u2581attend": 4370,
  "\u2581cu": 4371,
  "mor": 4372,
  "\u2581directa": 4373,
  "\u2581caracter\u00edsticas": 4374,
  "\u2581peque\u00f1o": 4375,
  "\u2581agricoles": 4376,
  "\u25819,": 4377,
  "\u2581infantil": 4378,
  "\u2581conduite": 4379,
  "-2": 4380,
  "\u2581devez": 4381,
  "\u2581particularmente": 4382,
  "\u2581autorizaci\u00f3n": 4383,
  "ette": 4384,
  "\u2581dije": 4385,
  "\u2581evoluci\u00f3n": 4386,
  "\u2581Mus": 4387,
  "\u2581intervenci\u00f3n": 4388,
  "\u2581devenir": 4389,
  "\u2581esp\u00edritu": 4390,
  "\u2581chercher": 4391,
  "\u2581Sha": 4392,
  "\u2581siglo": 4393,
  "AM": 4394,
  "\u2581tierras": 4395,
  "\u2581mode": 4396,
  "tigo": 4397,
  "\u2581reconoce": 4398,
  "\u2581pr\u00e9paration": 4399,
  "\u2581sentir": 4400,
  "\u2581simplement": 4401,
  "\u2581pie": 4402,
  "\u2581acteurs": 4403,
  "\u2581humain": 4404,
  "lar": 4405,
  "\u2581Recorda": 4406,
  "8,": 4407,
  "\u2581fuego": 4408,
  "\u25812007.": 4409,
  "\u2581matin": 4410,
  "\u2581partage": 4411,
  "\u2581Govern": 4412,
  "\u2581transports": 4413,
  "\u2581dise\u00f1o": 4414,
  "entr\u00e9e": 4415,
  "\u2581adopte": 4416,
  "lig": 4417,
  "\u2581instamment": 4418,
  "\u2581contratos": 4419,
  "\u2581bord": 4420,
  "\u2581acoge": 4421,
  "\u2581tenant": 4422,
  "\u2581Sab": 4423,
  "\u2581visitas": 4424,
  "ari": 4425,
  "\u00e2t": 4426,
  "\u2581activa": 4427,
  "\u2581version": 4428,
  "\u2581contrario": 4429,
  "\u2581responder": 4430,
  "Les": 4431,
  "ido": 4432,
  "\u2581aquellos": 4433,
  "\u258117.": 4434,
  "28": 4435,
  "ions": 4436,
  "\u2581buscar": 4437,
  "\u2581recettes": 4438,
  "\u2581t\u00e9l\u00e9phone": 4439,
  "\u2581Oficial": 4440,
  "\u2581democracia": 4441,
  "\u2581modifications": 4442,
  "\u2581aient": 4443,
  "p\u00e9": 4444,
  "\u2581Christ": 4445,
  "aba": 4446,
  "\u2581\u00e1": 4447,
  "\u2581unidad": 4448,
  "nis": 4449,
  "pri": 4450,
  "\u2581aproximadamente": 4451,
  "ieux": 4452,
  "\u2581\u00e9lectronique": 4453,
  "\u2581Van": 4454,
  "\u2581Maintenant": 4455,
  "\u2581encuentran": 4456,
  "\u2581maintenir": 4457,
  "enfance": 4458,
  "aya": 4459,
  "\u2581Pri": 4460,
  "\u2581vivir": 4461,
  "\u2581ri": 4462,
  "\u2581\u00e9liminer": 4463,
  "\u2581garantie": 4464,
  "\u2581Mis": 4465,
  "\u2581all\u00e1": 4466,
  "\u2581cama": 4467,
  "\u2581afectados": 4468,
  "\u2581cat\u00e9gories": 4469,
  "\u25812000.": 4470,
  "\u2581accomplis": 4471,
  "\u2581Trans": 4472,
  "\u2581f\u00e9licit": 4473,
  "90": 4474,
  "\u2581sola": 4475,
  "\u2581deseo": 4476,
  "\u2581minimum": 4477,
  "\u2581\u00e9ch\u00e9ant": 4478,
  "\u2581Italie": 4479,
  "\u2581d\u00e9part": 4480,
  "\u2581tuer": 4481,
  "\u2581vis\u00e9s": 4482,
  "r\u00edas": 4483,
  "\u2581ordinaire": 4484,
  "ff": 4485,
  "\u2581naissance": 4486,
  "\u2581libert\u00e9s": 4487,
  "auteur": 4488,
  "\u2581\u00e9nergie": 4489,
  "\u2581v\u00e9rification": 4490,
  "hl": 4491,
  "\u2581ru": 4492,
  "\u2581\u00e9missions": 4493,
  "\u2581miles": 4494,
  "Commissariat": 4495,
  "\u2581destinados": 4496,
  "\u2581legal": 4497,
  "\u2581cursos": 4498,
  "\u2581totalmente": 4499,
  "\u2581t\u00e2ches": 4500,
  "\u2581celebr\u00f3": 4501,
  "\u2581milliers": 4502,
  "\u2581justo": 4503,
  "33": 4504,
  "\u2581forte": 4505,
  "lais": 4506,
  "\u2581minor\u00edas": 4507,
  "dra": 4508,
  "\u2581siete": 4509,
  "\u2581conclusion": 4510,
  "\u2581Mont": 4511,
  "\u2581Can": 4512,
  "\u2581Civil": 4513,
  "\u2581previstos": 4514,
  "\u2581pied": 4515,
  "\u2581comprendido": 4516,
  "\u2581entrar": 4517,
  "60": 4518,
  "\u2581organis\u00e9e": 4519,
  "\u2581was": 4520,
  "\u2581Mesa": 4521,
  "\u2581pagar": 4522,
  "\u2581r\u00e9sultat": 4523,
  "sur": 4524,
  "\u2581sangre": 4525,
  "\u2581cara": 4526,
  "m\u00e9": 4527,
  "\u2581animaux": 4528,
  "\u2581mundiales": 4529,
  "\u2581interesadas": 4530,
  "dire": 4531,
  "ED": 4532,
  "\u2581court": 4533,
  "\u2581faudrait": 4534,
  "\u2581quer\u00eda": 4535,
  "\u2581Accord": 4536,
  "\u2581prisi\u00f3n": 4537,
  "\u2581Peut": 4538,
  "\u2581constituyen": 4539,
  "\u2581pla\u00eet": 4540,
  "ines": 4541,
  "\u2581histoire": 4542,
  "\u2581Debe": 4543,
  "\u2581Gesti\u00f3n": 4544,
  "\u2581mensaje": 4545,
  "\u2581pi\u00e8ces": 4546,
  "\u2581informar": 4547,
  "\u2581petites": 4548,
  "CNUCED": 4549,
  "urgence": 4550,
  "\u2581pr\u00e9occupation": 4551,
  "\u2581p\u00e9rdida": 4552,
  "\u2581reciente": 4553,
  "OPS": 4554,
  "Rev": 4555,
  "\u2581nationalit\u00e9": 4556,
  "c\u00f3": 4557,
  "\u2581intenci\u00f3n": 4558,
  "\u2581modification": 4559,
  "\u2581www": 4560,
  "\u2581Oriente": 4561,
  "\u2581d\u00e9tenus": 4562,
  "\u2581emisiones": 4563,
  "\u2581Caribe": 4564,
  "\u2581d\u00e9finir": 4565,
  "77": 4566,
  "\u2581classe": 4567,
  "\u2581r\u00e9glementation": 4568,
  "\u2581Tr\u00e8s": 4569,
  "\u2581peso": 4570,
  "\u25812008.": 4571,
  "\u2581formulaci\u00f3n": 4572,
  "\u2581costo": 4573,
  "anza": 4574,
  "\u2581consid\u00e9r\u00e9": 4575,
  "\u2581consid\u00e8re": 4576,
  "\u2581agricole": 4577,
  "\u2581creado": 4578,
  "\u2581\u00e9l\u00e9ment": 4579,
  "\u2581dette": 4580,
  "\u2581hincapi\u00e9": 4581,
  "\u2581bene": 4582,
  "\u2581auxquels": 4583,
  "\u2581Pac\u00edfico": 4584,
  "\u2581versi\u00f3n": 4585,
  "\u2581calle": 4586,
  "\u2581heure": 4587,
  "\u2581Compte": 4588,
  "\u2581expresi\u00f3n": 4589,
  "\u2581conciencia": 4590,
  "\u2581Nunca": 4591,
  "\u2581sept": 4592,
  "\u2581sustancias": 4593,
  "\u2581(2": 4594,
  "her": 4595,
  "\u2581gustar\u00eda": 4596,
  "\u2581gouvernance": 4597,
  "\u2581Algunos": 4598,
  "\u2581St": 4599,
  "\u2581climatiques": 4600,
  "-3": 4601,
  "\u2581d\u00e9ploy\u00e9s": 4602,
  "\u2581vivant": 4603,
  "\u2581reconnaissance": 4604,
  "\u258168": 4605,
  "\u2581bis": 4606,
  "\u2581pr\u00eats": 4607,
  "\u2581\u00e9valuer": 4608,
  "\u2581pleine": 4609,
  "\u2581peque\u00f1a": 4610,
  "\u2581livre": 4611,
  "\u2581bu": 4612,
  "\u2581complet": 4613,
  "\u2581t\u00e9cnico": 4614,
  "\u2581s\u00e9jour": 4615,
  "\u2581pensar": 4616,
  "\u2581signifie": 4617,
  "cs": 4618,
  "\u2581suministro": 4619,
  "\u2581Proyecto": 4620,
  "\u2581relation": 4621,
  "\u2581limite": 4622,
  "\u2581transparencia": 4623,
  "\u2581estudiantes": 4624,
  "Am\u00e9rique": 4625,
  "\u2581LOS": 4626,
  "\u2581b\u00fasqueda": 4627,
  "\u2581Guatemala": 4628,
  "\u2581presque": 4629,
  "enqu\u00eate": 4630,
  "\u2581frecuencia": 4631,
  "+": 4632,
  "\u2581baja": 4633,
  "\u2581provenant": 4634,
  "\u2581=": 4635,
  "\u2581plano": 4636,
  "\u2581t\u00edtulo": 4637,
  "\u2581Min": 4638,
  "\u2581diversit\u00e9": 4639,
  "\u2581scientifique": 4640,
  "\u2581familiares": 4641,
  "\u2581recientemente": 4642,
  "\u258150%": 4643,
  "\u2581recurso": 4644,
  "\u2581criminalit\u00e9": 4645,
  "\u2581adhesi\u00f3n": 4646,
  "\u2581cifras": 4647,
  "\u2581infractions": 4648,
  "\u2581nord": 4649,
  "\u2581har\u00e1": 4650,
  "\u2581islamique": 4651,
  "haque": 4652,
  "\u2581examine": 4653,
  "43": 4654,
  "\u2581[...]": 4655,
  "\u2581sessions": 4656,
  "ato": 4657,
  "autorit\u00e9": 4658,
  "\u2581Bajos": 4659,
  "\u2581comisi\u00f3n": 4660,
  "44": 4661,
  "\u2581message": 4662,
  "\u2581maladies": 4663,
  "\u2581aparta": 4664,
  "\u2581fran\u00e7ais": 4665,
  "all": 4666,
  "\u00e9conomie": 4667,
  "\u2581clim\u00e1tico": 4668,
  "\u2581bois": 4669,
  "\u2581Turqu\u00eda": 4670,
  "\u2581puissance": 4671,
  "\u2581parfois": 4672,
  "ock": 4673,
  "lot": 4674,
  "\u00edas": 4675,
  "\u2581table": 4676,
  "\u2581Bosnia": 4677,
  "\u2581entidad": 4678,
  "cor": 4679,
  "tic": 4680,
  "\u2581espace": 4681,
  "ois": 4682,
  "\u2581Sus": 4683,
  "/15": 4684,
  "\u2581consid\u00e9ration": 4685,
  "\u2581th\u00e8me": 4686,
  "\u2581lieux": 4687,
  "l\u00e0": 4688,
  "\u00e1ndose": 4689,
  "encontre": 4690,
  "EM": 4691,
  "\u2581racial": 4692,
  "\u2581basada": 4693,
  "34": 4694,
  "\u2581accro\u00eetre": 4695,
  ".10": 4696,
  "OM": 4697,
  "kh": 4698,
  "istes": 4699,
  "\u2581idiomas": 4700,
  "\u2581vid\u00e9o": 4701,
  "\u2581actuel": 4702,
  "torio": 4703,
  "\u2581\u00e9volution": 4704,
  "ide": 4705,
  "\u2581ap": 4706,
  "Pide": 4707,
  "ction": 4708,
  "esprit": 4709,
  "\u2581d\u00e9bats": 4710,
  "activit\u00e9": 4711,
  "\u2581tarea": 4712,
  "\u2581Mes": 4713,
  "\u2581Brasil": 4714,
  "\u2581opci\u00f3n": 4715,
  "\u2581Red": 4716,
  "honneur": 4717,
  "\u2581viene": 4718,
  "05": 4719,
  "\u2581actualidad": 4720,
  "\u2581Protecci\u00f3n": 4721,
  "S\u00ed": 4722,
  "ini": 4723,
  "\u2581Cuadro": 4724,
  "\u2581appuyer": 4725,
  "\u2581longue": 4726,
  "\u2581Association": 4727,
  "\u2581Journal": 4728,
  "\u2581cuidado": 4729,
  "b\u00ed": 4730,
  "\u2581puerta": 4731,
  "\u2581llegado": 4732,
  "pendencia": 4733,
  "\u2581s\u00e9ances": 4734,
  "\u00f1": 4735,
  "\u2581offrir": 4736,
  "\u2581compra": 4737,
  "rbit": 4738,
  "\u2581allant": 4739,
  "\u2581ministres": 4740,
  "\u2581Quiz\u00e1": 4741,
  "\u2581VII": 4742,
  "\u2581procedentes": 4743,
  "\u2581Certains": 4744,
  "ere": 4745,
  "\u2581avances": 4746,
  "dro": 4747,
  "ative": 4748,
  "pas": 4749,
  "CP": 4750,
  "\u2581soluciones": 4751,
  "armes": 4752,
  "\u2581lien": 4753,
  "\u2581b\u00e9n\u00e9ficier": 4754,
  "mber": 4755,
  "\u2581exterior": 4756,
  "02": 4757,
  "\u2581corruption": 4758,
  "\u2581LAS": 4759,
  "UU": 4760,
  "\u2581extraordinaire": 4761,
  "\u2581CO": 4762,
  "\u258167": 4763,
  "\u2581entr\u00e9e": 4764,
  "\u2581europeo": 4765,
  "\u2581peri\u00f3dico": 4766,
  "uc": 4767,
  "\u25812003.": 4768,
  "\u2581pan": 4769,
  "\u2581vin": 4770,
  "pan": 4771,
  "\u2581Tom": 4772,
  "ial": 4773,
  "vol": 4774,
  "\u2581familiar": 4775,
  "\u2581inclusi\u00f3n": 4776,
  "r\u00e9solution": 4777,
  "JO": 4778,
  "\u2581State": 4779,
  "\u2581pri": 4780,
  "\u2581poids": 4781,
  "hen": 4782,
  "\u00f1e": 4783,
  "pl\u00e1ci": 4784,
  "\u2581concern\u00e9es": 4785,
  "ich": 4786,
  "\u2581Cara\u00efbes": 4787,
  "31": 4788,
  "so": 4789,
  "\u2581Jean": 4790,
  "\u2581jur\u00eddicos": 4791,
  "\u2581opciones": 4792,
  "\u2581d\u00e9lais": 4793,
  "\u2581progreso": 4794,
  "\u2581palestinien": 4795,
  "\u2581constitutionnel": 4796,
  "\u2581modifi\u00e9": 4797,
  "\u2581eficiencia": 4798,
  "\u2581r\u00e9ponses": 4799,
  "\u2581enmiendas": 4800,
  "\u2581pr\u00e9sent\u00e9s": 4801,
  "\u2581connais": 4802,
  "\u2581acto": 4803,
  "\u2581si\u00e8cle": 4804,
  "\u2581adecuado": 4805,
  "\u2581Organismo": 4806,
  "lement": 4807,
  "\u2581Ir\u00e1n": 4808,
  "\u2581lu": 4809,
  "adas": 4810,
  "\u2581Forum": 4811,
  "\u2581suivante": 4812,
  "\u2581facile": 4813,
  "\u2581150": 4814,
  "\u258172": 4815,
  "Di": 4816,
  "\u2581jeune": 4817,
  "\u2581Pal": 4818,
  "\u2581apoya": 4819,
  "\u2581pas\u00f3": 4820,
  "\u2581poblaciones": 4821,
  "\u2581obligatoire": 4822,
  "Qu": 4823,
  "\u2581viens": 4824,
  "\u2581informa": 4825,
  "\u2581humanitario": 4826,
  "\u2581privada": 4827,
  "\u2581Tri": 4828,
  "\u2581superficie": 4829,
  "\u2581Observa": 4830,
  "\u2581prochaine": 4831,
  "\u2581llamamiento": 4832,
  "espace": 4833,
  "ira": 4834,
  "\u2581Wa": 4835,
  "\u258119.": 4836,
  "\u2581Visto": 4837,
  "clav": 4838,
  "ville": 4839,
  "\u2581juges": 4840,
  "\u2581celebrado": 4841,
  "\u2581logro": 4842,
  "\u2581fronti\u00e8res": 4843,
  "\u2581da\u00f1os": 4844,
  "\u2581atteint": 4845,
  "\u2581Bosnie": 4846,
  "\u2581Ambiente": 4847,
  "\u2581mercanc\u00edas": 4848,
  "\u2581Rica": 4849,
  "\u2581absence": 4850,
  "In": 4851,
  "59": 4852,
  "\u2581autorit\u00e9": 4853,
  "\u2581invita": 4854,
  "\u2581tel\u00e9fono": 4855,
  "Orient": 4856,
  "\u2581elecci\u00f3n": 4857,
  "\u2581M\u00eame": 4858,
  "\u2581conception": 4859,
  "\u2581Poli": 4860,
  "Si\u00e8ge": 4861,
  "\u2581priv\u00e9e": 4862,
  "\u2581essentiellement": 4863,
  "\u258110,": 4864,
  "isse": 4865,
  "tina": 4866,
  "taciones": 4867,
  "\u2581moral": 4868,
  "\u25812002.": 4869,
  "\u2581pr\u00e9judice": 4870,
  "\u2581continuar": 4871,
  "\u2581esposa": 4872,
  "iv": 4873,
  "\u2581conferencia": 4874,
  "\u258193": 4875,
  "tica": 4876,
  "\u2581human": 4877,
  "Bas": 4878,
  "\u2581Han": 4879,
  "\u2581villes": 4880,
  "\u2581enfermedad": 4881,
  "\u2581t\u00e9cnicos": 4882,
  "\u2581Salvador": 4883,
  "\u2581original": 4884,
  "\u2581cap": 4885,
  "r\u00f3": 4886,
  "\u2581pat": 4887,
  "\u2581lanc\u00e9": 4888,
  "\u2581Mu": 4889,
  "\u2581Tableau": 4890,
  "\u2581requiere": 4891,
  "\u2581disponibilidad": 4892,
  "\u2581r\u00e8gle": 4893,
  "\u2581retard": 4894,
  "\u2581Londres": 4895,
  "\u2581abierta": 4896,
  "\u2581particuliers": 4897,
  "\u2581campa\u00f1a": 4898,
  "\u2581RE": 4899,
  "\u2581inform\u00e9": 4900,
  "AD": 4901,
  "\u2581Popular": 4902,
  "\u2581diferencias": 4903,
  "\u2581Autres": 4904,
  "\u2581BCE": 4905,
  "\u2581coche": 4906,
  "\u2581firme": 4907,
  "\u2581Universidad": 4908,
  "aider": 4909,
  "\u2581sites": 4910,
  "uri": 4911,
  "\u2581partida": 4912,
  "\u2581Era": 4913,
  "\u2581esperar": 4914,
  "\u2581taille": 4915,
  "\u2581totale": 4916,
  "\u2581fera": 4917,
  "\u2581vivienda": 4918,
  "\u2581largement": 4919,
  "\u2581Allemagne": 4920,
  "\u2581structures": 4921,
  "\u2581auraient": 4922,
  "\u2581change": 4923,
  "\u2581Hasta": 4924,
  "\u2581masa": 4925,
  "ias": 4926,
  "ack": 4927,
  "\u2581appelle": 4928,
  "\u2581Moi": 4929,
  "\u2581Ap": 4930,
  "\u258173": 4931,
  "\u2581milliards": 4932,
  "bilidad": 4933,
  "57": 4934,
  "aria": 4935,
  "\u258184": 4936,
  "\u2581operaci\u00f3n": 4937,
  "igi": 4938,
  "\u2581inclu": 4939,
  "\u2581\u00e9quitable": 4940,
  "\u2581scientifiques": 4941,
  "BI": 4942,
  "\u2581etapa": 4943,
  "\u2581conventions": 4944,
  "\u2581usage": 4945,
  "\u2581libertades": 4946,
  "22": 4947,
  "\u2581mots": 4948,
  "ui": 4949,
  "\u2581appropri\u00e9es": 4950,
  "\u2581circulation": 4951,
  "\u2581Ter": 4952,
  "\u2581adjoint": 4953,
  "IL": 4954,
  "\u2581terroristas": 4955,
  "\u2581autour": 4956,
  "\u2581consenso": 4957,
  "\u2581Crist": 4958,
  "\u2581port": 4959,
  "enia": 4960,
  "imi": 4961,
  "\u2581rela": 4962,
  "\u2581Anexo": 4963,
  "omen": 4964,
  "ise": 4965,
  "\u2581conscience": 4966,
  "\u2581limites": 4967,
  "avenir": 4968,
  "\u2581viven": 4969,
  "\u2581preocupa": 4970,
  "cadre": 4971,
  "\u2581fichiers": 4972,
  "-4": 4973,
  "ona": 4974,
  "\u2581consolidation": 4975,
  "\u2581m\u00e9dicaments": 4976,
  "\u2581emp\u00eacher": 4977,
  "\u2581Moyen": 4978,
  "\u2581Parce": 4979,
  "\u2581Ke": 4980,
  "\u2581r\u00e9serves": 4981,
  "\u2581Myanmar": 4982,
  "mu": 4983,
  "\u2581d\u00e9sormais": 4984,
  "\u2581cycle": 4985,
  "\u2581quin": 4986,
  "\u2581avanc\u00e9s": 4987,
  "\u2581communes": 4988,
  "\u2581Apoyo": 4989,
  "\u2581color": 4990,
  "\u2581voulu": 4991,
  "\u2581hermano": 4992,
  "\u2581Jan": 4993,
  "\u2581composition": 4994,
  "\u2581fourniture": 4995,
  "2)": 4996,
  "\u2581adelantado": 4997,
  "\u2581utilis\u00e9es": 4998,
  "\u2581hogar": 4999,
  "\u2581Africana": 5000,
  "\u2581m\u00e9todo": 5001,
  "\u2581offici": 5002,
  "roy": 5003,
  "\u2581Voy": 5004,
  "\u258169": 5005,
  "\u2581terroristes": 5006,
  "\u2581residencia": 5007,
  "\u2581econom\u00edas": 5008,
  "/10": 5009,
  "occasion": 5010,
  "\u2581componentes": 5011,
  "\u2581pr\u00e9c\u00e9dent": 5012,
  "\u2581Nota": 5013,
  "\u2581chemin": 5014,
  "\u2581espec\u00edficos": 5015,
  "\u2581juntos": 5016,
  "ves": 5017,
  "yan": 5018,
  "ical": 5019,
  "intention": 5020,
  "\u2581quisiera": 5021,
  "icia": 5022,
  "\u2581cr\u00e9ditos": 5023,
  "\u2581Turquie": 5024,
  "\u2581habla": 5025,
  "lio": 5026,
  "\u2581organe": 5027,
  "\u2581integrado": 5028,
  "analyse": 5029,
  "\u2581\u00e9change": 5030,
  "\u2581sab\u00eda": 5031,
  "41": 5032,
  "\u2581catastrophes": 5033,
  "ik": 5034,
  "\u2581Considerando": 5035,
  "lato": 5036,
  "\u2581ordinario": 5037,
  "\u2581indemnizaci\u00f3n": 5038,
  "\u2581trait": 5039,
  "\u2581Aux": 5040,
  "\u2581permettent": 5041,
  "\u258186": 5042,
  "\u2581souligne": 5043,
  "\u2581elemento": 5044,
  "\u2581contrats": 5045,
  "tandis": 5046,
  "\u2581handicap\u00e9es": 5047,
  "\u2581changer": 5048,
  "\u2581denuncias": 5049,
  "\u2581exposici\u00f3n": 5050,
  "\u2581religi\u00f3n": 5051,
  "gin": 5052,
  "\u2581r\u00e9partition": 5053,
  "\u2581reconnu": 5054,
  "ov": 5055,
  "\u2581siga": 5056,
  "\u2581d\u00e9fis": 5057,
  "\u2581(\"": 5058,
  "\u2581inmediatamente": 5059,
  "mur": 5060,
  "\u2581nacionalidad": 5061,
  "try": 5062,
  "\u2581debates": 5063,
  "\u2581Bangladesh": 5064,
  "\u2581hablando": 5065,
  "65": 5066,
  "importation": 5067,
  "\u2581vulnerables": 5068,
  "\u2581prensa": 5069,
  "\u2581siquiera": 5070,
  "\u2581vuln\u00e9rables": 5071,
  "\u2581ampliar": 5072,
  "dre": 5073,
  "\u2581Uno": 5074,
  "\u2581SE": 5075,
  "85": 5076,
  "\u2581\u00e9chelle": 5077,
  "\u2581estim\u00e9": 5078,
  "\u2581archivos": 5079,
  "\u2581aprobada": 5080,
  "ol\u00e9": 5081,
  "\u2581Afin": 5082,
  "\u2581mines": 5083,
  "serv": 5084,
  "\u2581journ\u00e9e": 5085,
  "\u2581soixante": 5086,
  "/24": 5087,
  "\u2581obstacles": 5088,
  "\u2581Presidenta": 5089,
  "\u2581Che": 5090,
  "\u2581Palestina": 5091,
  "\u2581Za": 5092,
  "\u2581r\u00e9guli\u00e8rement": 5093,
  "ima": 5094,
  "\u2581distribution": 5095,
  "7/": 5096,
  "\u2581libres": 5097,
  "\u2581libro": 5098,
  "ru": 5099,
  "\u25812013,": 5100,
  "\u2581climat": 5101,
  "\u2581contenant": 5102,
  "\u2581biais": 5103,
  "\u2581experiencias": 5104,
  "\u266a": 5105,
  "\u2581acaba": 5106,
  "uch": 5107,
  "\u2581permanentes": 5108,
  "\u2581centrales": 5109,
  "histoire": 5110,
  "\u2581puesta": 5111,
  "nom": 5112,
  "\u2581400": 5113,
  "\u2581(2)": 5114,
  "ney": 5115,
  "\u2581entier": 5116,
  "\u2581honor": 5117,
  "\u2581c\u00f3digo": 5118,
  "76": 5119,
  "\u2581r\u00e9soudre": 5120,
  "rro": 5121,
  "\u2581palestino": 5122,
  "\u2581observ\u00f3": 5123,
  "\u2581judiciales": 5124,
  "ev": 5125,
  "\u2581abarca": 5126,
  "HR": 5127,
  "\u2581Mexique": 5128,
  "rea": 5129,
  "\u2581porcentaje": 5130,
  "\u2581Comp": 5131,
  ".4": 5132,
  "\u2581aides": 5133,
  "\u2581bienestar": 5134,
  "\u25812001.": 5135,
  "az": 5136,
  "\u2581Secci\u00f3n": 5137,
  "\u2581Espagne": 5138,
  "\u2581aguas": 5139,
  "\u2581pr\u00e9occupations": 5140,
  "\u2581-\u00bf": 5141,
  "\u2581esperanza": 5142,
  "\u2581producteurs": 5143,
  "\u2581perte": 5144,
  "\u2581expresa": 5145,
  "\u2581destin\u00e9es": 5146,
  "\u2581unidades": 5147,
  "\u2581preparado": 5148,
  "\u2581Tel": 5149,
  "ffi": 5150,
  "\u2581Direcci\u00f3n": 5151,
  "\u2581extranjero": 5152,
  "\u2581\u00e9v\u00e9nements": 5153,
  "\u2581similares": 5154,
  "\u2581f\u00edsica": 5155,
  "03": 5156,
  "\u2581Mag": 5157,
  "\u2581cal": 5158,
  "\u2581impact": 5159,
  "\u2581conformes": 5160,
  "\u2581protocole": 5161,
  "6/": 5162,
  "\u2581tasas": 5163,
  "asse": 5164,
  "ete": 5165,
  "\u2581susceptibles": 5166,
  "\u2581pagos": 5167,
  "IG": 5168,
  "\u00e8rent": 5169,
  "\u2581internes": 5170,
  "\u2581fabrication": 5171,
  "\u2581agit": 5172,
  "\u2581Sch": 5173,
  "\u2581suficientes": 5174,
  "\u2581destinadas": 5175,
  "04": 5176,
  "\u2581acontecimientos": 5177,
  "\u2581suppl\u00e9mentaire": 5178,
  "\u2581Fu": 5179,
  "\u2581\u00fatil": 5180,
  "\u2581occidental": 5181,
  "uve": 5182,
  "\u2581franc\u00e9s": 5183,
  "ew": 5184,
  "/59/": 5185,
  "\u2581min": 5186,
  "\u2581vite": 5187,
  "\u2581consensus": 5188,
  "\u2581recuerda": 5189,
  "\u2581agr\u00edcolas": 5190,
  "\u2581habitaciones": 5191,
  "\u2581pl\u00e9ni\u00e8re": 5192,
  "\u2581effective": 5193,
  "\u00e9is": 5194,
  "\u2581latine": 5195,
  "\u2581ampliaci\u00f3n": 5196,
  "\u2581entrega": 5197,
  "\u2581gas": 5198,
  "\u2581Egipto": 5199,
  "\u2581Avant": 5200,
  "\u2581demeure": 5201,
  "DP": 5202,
  "\u2581alimentaires": 5203,
  "iques": 5204,
  "v\u00e9": 5205,
  "book": 5206,
  "\u2581collecte": 5207,
  "\u2581invite": 5208,
  "\u2581Soudan": 5209,
  "\u2581Projet": 5210,
  "int\u00e9gration": 5211,
  "\u2581all": 5212,
  "08": 5213,
  "ple": 5214,
  "\u2581tor": 5215,
  "\u2581Vice": 5216,
  "54": 5217,
  "soluci\u00f3n": 5218,
  "\u258195": 5219,
  "\u2581lit": 5220,
  "c\u00ed": 5221,
  "\u2581ch": 5222,
  "\u2581Toutes": 5223,
  "tent": 5224,
  "regional": 5225,
  "\u2581excepci\u00f3n": 5226,
  "\u2581L\u00edbano": 5227,
  "\u2581Venezuela": 5228,
  "\u2581pouvant": 5229,
  "61": 5230,
  "ries": 5231,
  "\u2581deja": 5232,
  "ear": 5233,
  "\u258121.": 5234,
  "Pro": 5235,
  "ku": 5236,
  "79": 5237,
  "col": 5238,
  "\u2581presentes": 5239,
  "\u2581primeros": 5240,
  "nge": 5241,
  "aires": 5242,
  "rim": 5243,
  "els": 5244,
  "\u2581vues": 5245,
  "\u2581arrive": 5246,
  "\u2581Occidental": 5247,
  "\u2581Services": 5248,
  "onne": 5249,
  "\u2581partenariats": 5250,
  "\u2581bal": 5251,
  "\u2581dosis": 5252,
  "\u2581candidats": 5253,
  "\u2581ojos": 5254,
  "\u2581parl\u00e9": 5255,
  "voy": 5256,
  "\u2581productores": 5257,
  "\u2581sauf": 5258,
  "\u2581http": 5259,
  "www": 5260,
  "\u2581diversidad": 5261,
  "\u2581detalles": 5262,
  "84": 5263,
  "\u2581moiti\u00e9": 5264,
  "-1": 5265,
  "ateurs": 5266,
  "\u2581Viena": 5267,
  "\u2581iba": 5268,
  "IS": 5269,
  "firma": 5270,
  "\u2581Econ\u00f3mica": 5271,
  "\u2581fondamentales": 5272,
  "69": 5273,
  "11": 5274,
  "\u2581Seigneur": 5275,
  "07": 5276,
  "\u2581establecen": 5277,
  "ade": 5278,
  "\u258176": 5279,
  "\u2581Iglesia": 5280,
  "\u2581suffisamment": 5281,
  "ual": 5282,
  "work": 5283,
  "\u2581arriba": 5284,
  "\u2581importations": 5285,
  "\u2581t\u00e2che": 5286,
  "\u2581sp\u00e9cifique": 5287,
  "\u2581composici\u00f3n": 5288,
  "del\u00e0": 5289,
  "\u2581encourage": 5290,
  "\u2581sp\u00e9ciaux": 5291,
  "\u2581desempe\u00f1ar": 5292,
  "\u2581Vienne": 5293,
  "SI": 5294,
  "\u2581fiscales": 5295,
  "pu": 5296,
  "32": 5297,
  "ena": 5298,
  "\u2581mor": 5299,
  "\u2581bonnes": 5300,
  "\u2581p\u00e9riodique": 5301,
  "\u2581prochain": 5302,
  "\u25812009.": 5303,
  "PN": 5304,
  "\u2581velar": 5305,
  "\u2581recordar": 5306,
  "iller": 5307,
  "\u2581pedir": 5308,
  "3)": 5309,
  "\u2581illicite": 5310,
  "\u2581buenas": 5311,
  "\u2581hija": 5312,
  "\u2581organismo": 5313,
  "\u2581dictamen": 5314,
  "\u2581col": 5315,
  "\u2581mira": 5316,
  "mal": 5317,
  "\u2581universelle": 5318,
  "\u2581presi\u00f3n": 5319,
  "\u2581penser": 5320,
  "\u2581directeur": 5321,
  "\u2581secours": 5322,
  "non": 5323,
  "87": 5324,
  "\u2581charg\u00e9s": 5325,
  "asile": 5326,
  "\u2581pr\u00e9vus": 5327,
  "exp\u00e9rience": 5328,
  "\u258110%": 5329,
  "Est": 5330,
  "\u2581roi": 5331,
  "\u2581importaciones": 5332,
  "\u2581eaux": 5333,
  "\u2581esfuerzo": 5334,
  "tud": 5335,
  "ID": 5336,
  "uk": 5337,
  "\u00e9limination": 5338,
  "\u2581rev": 5339,
  "\u2581empleados": 5340,
  "\u2581Suiza": 5341,
  "\u2581consideraci\u00f3n": 5342,
  "\u2581necesitan": 5343,
  "\u00e9ri": 5344,
  "\u2581establecidas": 5345,
  "\u2581She": 5346,
  "II": 5347,
  "Que": 5348,
  "\u2581ACNUR": 5349,
  "\u2581Sociales": 5350,
  "\u00e9volution": 5351,
  "\u2581\u00c1rabe": 5352,
  "\u2581humanidad": 5353,
  "\u2581muerto": 5354,
  "wo": 5355,
  "\u2581commercial": 5356,
  "\u2581limit\u00e9e": 5357,
  "\u2581pertes": 5358,
  "\u2581comparaci\u00f3n": 5359,
  "\u2581competente": 5360,
  "tation": 5361,
  "2011": 5362,
  "\u2581industrial": 5363,
  "/23": 5364,
  "\u2581habitaci\u00f3n": 5365,
  "\u2581auquel": 5366,
  "3.": 5367,
  "\u2581situ\u00e9": 5368,
  "\u2581Lanka": 5369,
  "\u2581europeos": 5370,
  "\u2581fr\u00e8re": 5371,
  "\u2581drogue": 5372,
  "omb": 5373,
  "\u2581for\u00eats": 5374,
  "\u2581Eh": 5375,
  "si\u00f3n": 5376,
  "\u2581laboral": 5377,
  "\u2581budg\u00e9taire": 5378,
  "\u2581obst\u00e1culos": 5379,
  "\u2581continuent": 5380,
  "\u2581somos": 5381,
  "\u2581Nuestro": 5382,
  "sol": 5383,
  "\u2581t\u00e9rmino": 5384,
  ".1,": 5385,
  "\u2581Bruxelles": 5386,
  "\u258174": 5387,
  "\u2581Sri": 5388,
  "\u2581rey": 5389,
  "\u2581Commissaire": 5390,
  "\u2581Br\u00e9sil": 5391,
  "\u2581europ\u00e9ens": 5392,
  "exportation": 5393,
  "\u2581kg": 5394,
  "\u2581m\u00e9dicos": 5395,
  "Herz\u00e9govine": 5396,
  "\u2581estrecha": 5397,
  "\u2581identidad": 5398,
  "\u2581fl": 5399,
  "\u2581documentaci\u00f3n": 5400,
  "\u2581avenir": 5401,
  "\u2581Camp": 5402,
  "\u2581profit": 5403,
  "ning": 5404,
  "\u2581palestinos": 5405,
  "ng": 5406,
  "\u2581Antes": 5407,
  "\u2581Herzegovina": 5408,
  "\u2581Sta": 5409,
  "ele": 5410,
  "\u2581prestaciones": 5411,
  "\u2581Guinea": 5412,
  "\u2581supone": 5413,
  "\u2581maximum": 5414,
  "\u25811988": 5415,
  "\u2581incidences": 5416,
  "\u2581dirigeants": 5417,
  "ind": 5418,
  "yl": 5419,
  "bul": 5420,
  "occupation": 5421,
  "RP": 5422,
  "\u2581volume": 5423,
  "experts": 5424,
  "\u2581infraction": 5425,
  "\u2581agricultura": 5426,
  "ages": 5427,
  "\u2581r\u00e9formes": 5428,
  "\u2581anteriormente": 5429,
  "\u2581ten\u00edan": 5430,
  "Mi": 5431,
  "\u2581golpe": 5432,
  "MIN": 5433,
  "\u2581conducta": 5434,
  "\u2581Personal": 5435,
  "\u2581int": 5436,
  "\u2581servi": 5437,
  "\u2581ouverte": 5438,
  "[": 5439,
  "\u2581effectivement": 5440,
  "\u2581representaci\u00f3n": 5441,
  "\u2581financer": 5442,
  "\")": 5443,
  "\u2581arabes": 5444,
  "fort": 5445,
  "\u2581plenaria": 5446,
  "\u2581Arr\u00eat": 5447,
  "\u2581examin\u00f3": 5448,
  "\u2581enfin": 5449,
  "\u2581candidatos": 5450,
  "\u2581estudiar": 5451,
  "\u2581diferente": 5452,
  "\u2581formul\u00e9es": 5453,
  "sal": 5454,
  "\u2581ocho": 5455,
  "\u2581instance": 5456,
  "humanit\u00e9": 5457,
  "\u2581Sans": 5458,
  "\u258189": 5459,
  "\u2581annonce": 5460,
  "\u2581tercera": 5461,
  "sible": 5462,
  "\u2581dispositif": 5463,
  "\u2581Regional": 5464,
  "let": 5465,
  "\u2581costes": 5466,
  "\u2581Africa": 5467,
  "\u2581Mac": 5468,
  "\u2581ba\u00f1o": 5469,
  "\u2581permettra": 5470,
  "absence": 5471,
  "SA": 5472,
  "\u2581envisager": 5473,
  "\u2581ciudades": 5474,
  "\u2581revoir": 5475,
  "\u2581at": 5476,
  "\u2581correspondant": 5477,
  "\u2581Primera": 5478,
  "\u2581demain": 5479,
  "\u2581unit\u00e9s": 5480,
  "attention": 5481,
  "\u2581connu": 5482,
  "rnos": 5483,
  "\u2581pone": 5484,
  "\u2581commissions": 5485,
  "\u2581direct": 5486,
  "uta": 5487,
  "\u2581salvo": 5488,
  "\u2581aceptar": 5489,
  "\u2581extraordinario": 5490,
  "\u2581rehabilitaci\u00f3n": 5491,
  "m\u00eames": 5492,
  "IM": 5493,
  "grad": 5494,
  "\u2581anuales": 5495,
  "\u2581Deux": 5496,
  "tage": 5497,
  "\u258187": 5498,
  "\u2581Yugoslavia": 5499,
  "cord": 5500,
  "\u2581nouvel": 5501,
  "\u2581mente": 5502,
  "\u2581Annexe": 5503,
  "51": 5504,
  "\u2581interdiction": 5505,
  "\u2581choisir": 5506,
  "dessous": 5507,
  "\u2581utilizado": 5508,
  "\u2581Sistema": 5509,
  "\u2581hicieron": 5510,
  "\u2581sede": 5511,
  "\u2581conservaci\u00f3n": 5512,
  "\u2581Bra": 5513,
  "\u2581pal": 5514,
  "\u258197": 5515,
  "\u2581emplois": 5516,
  "\u2581enmienda": 5517,
  "\u2581impedir": 5518,
  "PT": 5519,
  "\u2581principale": 5520,
  "\u2581invit\u00e9": 5521,
  "\u2581observer": 5522,
  "\u2581premiers": 5523,
  "oi": 5524,
  "spi": 5525,
  "\u2581efficacement": 5526,
  "\u258166": 5527,
  "cel": 5528,
  "\u2581presidente": 5529,
  "\u2581ch\u00f4mage": 5530,
  "78": 5531,
  "\u258171": 5532,
  "ges": 5533,
  "\u2581indi": 5534,
  "\u2581recientes": 5535,
  "\u2581reformas": 5536,
  "\u2581appartenant": 5537,
  "\u2581Fre": 5538,
  "UL": 5539,
  "\u2581Institut": 5540,
  "\u2581Voil\u00e0": 5541,
  "\u2581tom\u00f3": 5542,
  "\u2581activement": 5543,
  "\u00fan": 5544,
  "\u2581pr\u00e9occup\u00e9": 5545,
  "\u2581victime": 5546,
  "\u2581testigos": 5547,
  "\u2581Demande": 5548,
  "\u2581vaya": 5549,
  "\u2581v\u00eda": 5550,
  "cy": 5551,
  "tico": 5552,
  "\u2581trabajando": 5553,
  "bro": 5554,
  "68": 5555,
  "\u2581aprovechar": 5556,
  "\u2581mains": 5557,
  "cle": 5558,
  "ige": 5559,
  "lis": 5560,
  "\u2581instituci\u00f3n": 5561,
  "98": 5562,
  "\u2581utilisant": 5563,
  "\u2581tomado": 5564,
  "95": 5565,
  "\u2581tradicionales": 5566,
  "\u2581impacto": 5567,
  "nio": 5568,
  "\u2581Federal": 5569,
  "\u2581firma": 5570,
  "empre": 5571,
  "\u2581Wien": 5572,
  "\u2581condena": 5573,
  "mie": 5574,
  "\u2581luchar": 5575,
  "\u2581revenus": 5576,
  "\u2581administrativas": 5577,
  "\u2581crea": 5578,
  "cou": 5579,
  "\u2581which": 5580,
  "\u258179": 5581,
  "\u2581ind\u00e9pendant": 5582,
  "\u2581nu": 5583,
  "\u2581utilisateurs": 5584,
  "42": 5585,
  "\u2581come": 5586,
  "\u2581simplemente": 5587,
  "\u2581autores": 5588,
  "\u2581sp\u00e9cialis\u00e9es": 5589,
  "\u2581Puis": 5590,
  "\u2581intervention": 5591,
  "/62/": 5592,
  "\u2581aspecto": 5593,
  "\u2581augment\u00e9": 5594,
  "\u2581science": 5595,
  "\u2581Exp": 5596,
  "\u2581v\u00e9ritable": 5597,
  "esp\u00e8re": 5598,
  "\u2581ambiental": 5599,
  "\u2581Nouvelle": 5600,
  "\u2581ocupaci\u00f3n": 5601,
  "\u2581r\u00e1pidamente": 5602,
  "iana": 5603,
  "\u2581pr\u00e9sent\u00e9es": 5604,
  "\u2581imagen": 5605,
  "\u2581concesi\u00f3n": 5606,
  "\u2581Gal": 5607,
  "lique": 5608,
  "FA": 5609,
  "\u2581fronteras": 5610,
  "\u2581jefe": 5611,
  "\u2581jur\u00eddicas": 5612,
  "\u2581restricciones": 5613,
  "\u2581venu": 5614,
  "\u00e9cole": 5615,
  "\u2581rang": 5616,
  "table": 5617,
  "\u2581pudiera": 5618,
  "\u2581Sobre": 5619,
  "\u2581mismas": 5620,
  "\u2581joven": 5621,
  "/12": 5622,
  "1.": 5623,
  "\u2581Autoridad": 5624,
  "\u2581Latina": 5625,
  "\u2581inf": 5626,
  "\u2581oferta": 5627,
  "\u2581peines": 5628,
  "\u2581Inde": 5629,
  "raient": 5630,
  "\u2581meilleurs": 5631,
  "36": 5632,
  "\u2581quantit\u00e9": 5633,
  "dan": 5634,
  "\u2581MON": 5635,
  "\u258188": 5636,
  "\u2581sign\u00e9": 5637,
  "\u2581l\u00edmites": 5638,
  "\u25812010.": 5639,
  "\u2581laisse": 5640,
  "ace": 5641,
  "prolif\u00e9ration": 5642,
  "\u2581Att": 5643,
  "cro": 5644,
  "\u2581Va": 5645,
  "0,": 5646,
  "\u2581formuladas": 5647,
  "\u2581circulaci\u00f3n": 5648,
  "\u2581diga": 5649,
  "\u2581corresponde": 5650,
  "\u2581mouvement": 5651,
  "\u2581pourcentage": 5652,
  "\u2581devoir": 5653,
  "74": 5654,
  "\u2581modalidades": 5655,
  "rom": 5656,
  "\u2581associ\u00e9s": 5657,
  "ities": 5658,
  "\u2581r\u00e8glements": 5659,
  "\u2581chances": 5660,
  "\u2581p\u00e9rdidas": 5661,
  "\u2581migrantes": 5662,
  "\u2581norma": 5663,
  "\u258191": 5664,
  "\u2581Pacifique": 5665,
  "\u2581Pendant": 5666,
  "\u2581individual": 5667,
  "\u2581jurisdicci\u00f3n": 5668,
  "\u2581men\u00e9e": 5669,
  "\u2581intitul\u00e9e": 5670,
  "lant": 5671,
  "ft": 5672,
  "\u2581ob": 5673,
  "\u2581120": 5674,
  "\u2581conjunta": 5675,
  "\u2581PIB": 5676,
  "\u2581Irlande": 5677,
  "CON": 5678,
  "\u2581Grande": 5679,
  "\u2581fournis": 5680,
  "\u2581arriv\u00e9": 5681,
  "\u2581\u00e9l\u00e8ves": 5682,
  "importe": 5683,
  "\u2581endroit": 5684,
  "\u2581ambientales": 5685,
  "\u2581consolidaci\u00f3n": 5686,
  "gos": 5687,
  "\u2581idioma": 5688,
  "\u2581ocasi\u00f3n": 5689,
  "\u2581actuar": 5690,
  "\u2581Bruselas": 5691,
  "\u2581danger": 5692,
  "investissement": 5693,
  "\u2581poursuite": 5694,
  "\u2581Sol": 5695,
  "\u2581estatales": 5696,
  "\u2581mettant": 5697,
  "\u2581familiale": 5698,
  "\u2581estructuras": 5699,
  "\u2581accus\u00e9": 5700,
  "UR": 5701,
  "\u2581alimentaria": 5702,
  "\u2581volontaires": 5703,
  "\u2581V\u00e9ase": 5704,
  "\u2581premi\u00e8res": 5705,
  "\u2581pensa": 5706,
  "\u2581figurent": 5707,
  "\u2581Ucrania": 5708,
  "ave": 5709,
  "\u2581capacidades": 5710,
  "osa": 5711,
  "\u2581Kuwait": 5712,
  "\u2581SA": 5713,
  "\u2581connexes": 5714,
  "\u2581urgente": 5715,
  "\u2581r\u00e1pida": 5716,
  "\u2581accorder": 5717,
  "dar": 5718,
  "\u2581Expertos": 5719,
  "mit": 5720,
  "/60": 5721,
  "\u2581realizadas": 5722,
  "\u2581multilaterales": 5723,
  "\u2581Her": 5724,
  "\u2581Tierra": 5725,
  "\u2581propuesto": 5726,
  "\u2581asilo": 5727,
  "\u2581concern\u00e9": 5728,
  "\u2581(2001)": 5729,
  "\u2581Par\u00eds": 5730,
  "\u2581Section": 5731,
  "\u258199": 5732,
  "\u2581solicitar": 5733,
  "\u2581tampoco": 5734,
  "\u2581EEE": 5735,
  "\u2581habitants": 5736,
  "\u2581Angola": 5737,
  "\u2581prestations": 5738,
  "\u2581dan": 5739,
  "\u00ef": 5740,
  "\u2581s\u00fbret\u00e9": 5741,
  "\u2581mandatos": 5742,
  "\u2581avance": 5743,
  "\u2581clair": 5744,
  "\u2581bout": 5745,
  "72": 5746,
  "\u2581Mc": 5747,
  "\u2581exercer": 5748,
  "\u2581suerte": 5749,
  "\u25810,00": 5750,
  "\u2581contingentes": 5751,
  "\u2581r\u00e9gler": 5752,
  "\u2581denuncia": 5753,
  "\u2581consommateurs": 5754,
  "\u2581fallait": 5755,
  ".7": 5756,
  "\u258111,": 5757,
  "\u2581concours": 5758,
  "\u2581alojamiento": 5759,
  "ient": 5760,
  "pongo": 5761,
  "\u2581Bol": 5762,
  "\u2581montrer": 5763,
  "\u2581abierto": 5764,
  "\u2581Noruega": 5765,
  "\u2581cocina": 5766,
  "\u2581infrastructures": 5767,
  "ult": 5768,
  "\u2581Parece": 5769,
  "\u2581Aplicaci\u00f3n": 5770,
  "\u2581comprar": 5771,
  "1999": 5772,
  "\u2581rel\u00e8ve": 5773,
  "dic": 5774,
  "rs": 5775,
  "\u2581Polic\u00eda": 5776,
  "\u2581dossier": 5777,
  "\u2581utilise": 5778,
  "\u2581Bou": 5779,
  "\u2581Madrid": 5780,
  "\u2581Insta": 5781,
  "\u258182": 5782,
  "\u2581(3": 5783,
  "\u2581Coordinaci\u00f3n": 5784,
  "\u2581directiva": 5785,
  "\u2581esenciales": 5786,
  "mis": 5787,
  "\u2581Ber": 5788,
  "\u2581operacionales": 5789,
  "\u2581puso": 5790,
  "\u2581Claro": 5791,
  "\u2581combien": 5792,
  "\u2581d\u00e9velopp\u00e9s": 5793,
  "\u2581trate": 5794,
  "\u2581movimiento": 5795,
  "\u2581Mas": 5796,
  "\u2581enti\u00e8rement": 5797,
  "ps": 5798,
  "\u2581r\u00e9vision": 5799,
  "66": 5800,
  "\u2581Art": 5801,
  "\u2581d\u00e9plac\u00e9es": 5802,
  "\u2581f\u00e9d\u00e9rale": 5803,
  "\u2581vino": 5804,
  "/61/": 5805,
  "63": 5806,
  "\u2581Luc": 5807,
  "\u2581\u00e9tranger": 5808,
  "\u2581d\u00e9clare": 5809,
  "\u2581Asistencia": 5810,
  "\u2581atender": 5811,
  "h\u00f4te": 5812,
  "\u2581Pan": 5813,
  "\u2581Todas": 5814,
  "\u2581administratif": 5815,
  "nas": 5816,
  "\u2581croire": 5817,
  "\u2581meilleures": 5818,
  "\u2581Pakist\u00e1n": 5819,
  "uff": 5820,
  "cto": 5821,
  "\u2581modificaci\u00f3n": 5822,
  "Po": 5823,
  "aimerai": 5824,
  "\u2581respectivement": 5825,
  "dica": 5826,
  "\u2581vive": 5827,
  "\u2581quarante": 5828,
  "\u2581affectation": 5829,
  "\u2581determinado": 5830,
  "89": 5831,
  "adi": 5832,
  "01": 5833,
  "\u2581associations": 5834,
  "\u2581argent": 5835,
  "cc": 5836,
  "\u2581montr\u00e9": 5837,
  "\u00e9t\u00e9": 5838,
  "\u2581600": 5839,
  "\u2581Rien": 5840,
  "\u2581virus": 5841,
  "\u2581Fe": 5842,
  "\u2581App": 5843,
  "\u2581proporciona": 5844,
  "\u2581destin\u00e9": 5845,
  "\u2581creer": 5846,
  "\u2581institutionnel": 5847,
  "\u2581seconde": 5848,
  "\u2581cm": 5849,
  "Universit\u00e9": 5850,
  "\u2581cre": 5851,
  "bes": 5852,
  "\u2581pr\u00e9parer": 5853,
  "\u2581pression": 5854,
  "\u2581modificar": 5855,
  "\u2581US": 5856,
  "\u2581professionnels": 5857,
  "\u2581reclamaciones": 5858,
  "\u2581locale": 5859,
  "\u2581compa": 5860,
  "\u2581\u00e9tablis": 5861,
  "am\u00e9liorer": 5862,
  "oso": 5863,
  "\u258120%": 5864,
  "\u2581D\u00e9cision": 5865,
  "\u2581Super": 5866,
  "\u2581garder": 5867,
  "CT": 5868,
  "\u2581selecci\u00f3n": 5869,
  "\u2581payer": 5870,
  "\u2581arriver": 5871,
  "pp": 5872,
  "\u2581combattre": 5873,
  "\u2581Papa": 5874,
  "\u2581Etat": 5875,
  "\u2581Austria": 5876,
  "\u2581d\u00e9ficit": 5877,
  "\u2581acusado": 5878,
  "\u2581respectivamente": 5879,
  "\u2581supra": 5880,
  "\u2581marque": 5881,
  "\u2581\u00e9tablie": 5882,
  "\u2581Suisse": 5883,
  "\u2581cherche": 5884,
  "\u2581Grecia": 5885,
  "\u2581controles": 5886,
  "\u2581carne": 5887,
  "\u2581verre": 5888,
  "l\u00e1": 5889,
  "\u25812016": 5890,
  "\u2581Fiscal": 5891,
  "/25": 5892,
  "isa": 5893,
  "\u2581soumettre": 5894,
  "\u2581examinado": 5895,
  "\u2581Ministros": 5896,
  "\u2581utilizando": 5897,
  "eo": 5898,
  "\u2581combustible": 5899,
  "wan": 5900,
  "\u2581Pakistan": 5901,
  "ox": 5902,
  "Pa": 5903,
  "\u2581interm\u00e9diaire": 5904,
  "97": 5905,
  "\u2581pertinents": 5906,
  "\u2581Isl\u00e1mica": 5907,
  "\u2581Sud\u00e1frica": 5908,
  "essai": 5909,
  "\u2581arm\u00e9es": 5910,
  "tados": 5911,
  "\u2581estados": 5912,
  "\u2581Home": 5913,
  "\u2581comportement": 5914,
  "dans": 5915,
  "\u2581activamente": 5916,
  "\u2581\u00e9tudier": 5917,
  "\u2581Su\u00e8de": 5918,
  "ouille": 5919,
  "\u2581handicap\u00e9s": 5920,
  "\u2581desa": 5921,
  "\u2581vuelta": 5922,
  "\u2581Ton": 5923,
  "encia": 5924,
  "\u2581\u00e9tudiants": 5925,
  "\u2581racisme": 5926,
  "\u258123.": 5927,
  "\u258194": 5928,
  "\u2581Lettre": 5929,
  "gard": 5930,
  "\u2581Siria": 5931,
  "r\u00edan": 5932,
  "\u2581v\u00edctima": 5933,
  "\u2581organizar": 5934,
  "\u2581Col": 5935,
  "ella": 5936,
  "\u2581Operaciones": 5937,
  "\u2581conformit\u00e9": 5938,
  "\u258112,": 5939,
  "/14": 5940,
  "\u2581llamado": 5941,
  "\u25811990,": 5942,
  "rez": 5943,
  "sas": 5944,
  "\u2581stocks": 5945,
  "\u2581int\u00e9gr\u00e9e": 5946,
  "stre": 5947,
  "comisi\u00f3n": 5948,
  "\u2581int\u00e9gr\u00e9": 5949,
  "\u2581Bas": 5950,
  "\u2581comprends": 5951,
  "\u2581Fran": 5952,
  "\u2581exportaciones": 5953,
  "\u2581proceda": 5954,
  "bri": 5955,
  "tour": 5956,
  "\u2581prevista": 5957,
  "\u2581touche": 5958,
  "amo": 5959,
  "\u2581Kyoto": 5960,
  "\u2581licencia": 5961,
  "\u2581huit": 5962,
  "\u2581judiciaires": 5963,
  "\u2581exportations": 5964,
  "\u2581decenio": 5965,
  "\u2581D\u00e9c": 5966,
  "\u2581san": 5967,
  "\u2581adolescentes": 5968,
  "jan": 5969,
  "\u2581medicamentos": 5970,
  "\u2581empezar": 5971,
  "Un": 5972,
  "ugh": 5973,
  "\u2581participan": 5974,
  "\u2581restrictions": 5975,
  "\u2581Madame": 5976,
  "\u2581amendements": 5977,
  "pt": 5978,
  "\u2581basa": 5979,
  "\u2581d\u00e9tail": 5980,
  "4)": 5981,
  "\u2581interventions": 5982,
  "88": 5983,
  "\u2581norte": 5984,
  "t\u00f3n": 5985,
  "\u2581cantidades": 5986,
  "\u2581ambas": 5987,
  "\u2581effectifs": 5988,
  "\u2581ajuste": 5989,
  "\u00e9tude": 5990,
  "\u2581presta": 5991,
  "\u2581contr\u00f4les": 5992,
  "\u2581podido": 5993,
  "\u2581devaient": 5994,
  "\u2581desastres": 5995,
  "\u2581repercusiones": 5996,
  "veille": 5997,
  "atch": 5998,
  "\u2581ciertas": 5999,
  "\u2581modifica": 6000,
  "\u2581district": 6001,
  "PI": 6002,
  "\u2581chiffres": 6003,
  "\u2581\u00e9stos": 6004,
  "\u2581estima": 6005,
  "\u2581corrupci\u00f3n": 6006,
  "R\u00e9publique": 6007,
  "\u2581beneficio": 6008,
  "eta": 6009,
  "\u2581National": 6010,
  "dio": 6011,
  "am\u00e9lioration": 6012,
  "\u2581salida": 6013,
  "d\u00f3": 6014,
  "\u2581courant": 6015,
  "56": 6016,
  "\u2581obras": 6017,
  "\u2581Chipre": 6018,
  "\u2581Medidas": 6019,
  "\u2581ferme": 6020,
  "/7": 6021,
  "-2007": 6022,
  "\u2581agr\u00edcola": 6023,
  "\u2581d\u00e9cider": 6024,
  "\u2581infancia": 6025,
  "\u2581Econ\u00f3micos": 6026,
  "\u2581coeur": 6027,
  "\u2581priv\u00e9s": 6028,
  "\u2581comenzar": 6029,
  "existe": 6030,
  "tendant": 6031,
  "esta": 6032,
  "\u2581enviar": 6033,
  "\u2581m\u00e1xima": 6034,
  "\u2581CEE": 6035,
  "\u2581(2004)": 6036,
  "\u2581Suecia": 6037,
  "fen": 6038,
  "\u2581calendrier": 6039,
  "gubernamentales": 6040,
  "\u2581pr\u00e9sentant": 6041,
  "\u2581vistas": 6042,
  "\u2581\u00e2g\u00e9es": 6043,
  "\u2581creciente": 6044,
  "\u2581ciclo": 6045,
  "\u2581comentarios": 6046,
  "izar": 6047,
  "\u2581fini": 6048,
  "/26": 6049,
  "\u2581debidamente": 6050,
  "Tiene": 6051,
  "\u2581propias": 6052,
  "\u2581recrutement": 6053,
  "idio": 6054,
  "\u2581aprobar": 6055,
  "\u2581perjuicio": 6056,
  "tele": 6057,
  "rin": 6058,
  "\u2581evaluaciones": 6059,
  "stro": 6060,
  "\u2581tama\u00f1o": 6061,
  "09": 6062,
  "\u2581belle": 6063,
  "\u2581tendance": 6064,
  "IP": 6065,
  "\u2581l\u00e9gislatives": 6066,
  "tement": 6067,
  "\u2581ordenaci\u00f3n": 6068,
  "\u2581error": 6069,
  "\u258124.": 6070,
  "bl": 6071,
  "rios": 6072,
  "\u2581Ken": 6073,
  "\u2581Partie": 6074,
  "OR": 6075,
  "\u25811999.": 6076,
  "\u2581\u00e9troite": 6077,
  "\u2581commence": 6078,
  "\u2581m\u00e9decin": 6079,
  "\u2581recomend\u00f3": 6080,
  "\u2581v\u00e9rifier": 6081,
  "\u2581formule": 6082,
  "\u2581extr\u00eamement": 6083,
  "\u2581abogado": 6084,
  "nda": 6085,
  "\u2581amenazas": 6086,
  "\u2581disminuci\u00f3n": 6087,
  "\u2581primaria": 6088,
  "\u2581presentada": 6089,
  "\u2581Colombia": 6090,
  "96": 6091,
  "rons": 6092,
  "\u2581exprim\u00e9": 6093,
  "\u2581ideas": 6094,
  "\u2581Indonesia": 6095,
  "52": 6096,
  "\u2581Presupuesto": 6097,
  "\u2581Plusieurs": 6098,
  "chr\u00e9tien": 6099,
  "\u2581causes": 6100,
  "\u2581tiens": 6101,
  "\u2581conoce": 6102,
  "jes": 6103,
  "\u2581l\u00edmite": 6104,
  "\u2581integridad": 6105,
  "\u2581viejo": 6106,
  "\u2581trabajan": 6107,
  "\u2581noter": 6108,
  "\u2581Bro": 6109,
  "\u2581desarrollados": 6110,
  "\u2581fournit": 6111,
  "\u2581miedo": 6112,
  "\u2581asignaci\u00f3n": 6113,
  "\u2581auxquelles": 6114,
  "agriculture": 6115,
  "appel": 6116,
  "\u2581requ\u00e9rant": 6117,
  "\u2581p\u00e1ginas": 6118,
  "\u2581marca": 6119,
  "stru": 6120,
  "\u2581logiciel": 6121,
  "\u2581superiores": 6122,
  "\u2581habitantes": 6123,
  "\u2581liaison": 6124,
  "\u2581notificaci\u00f3n": 6125,
  "\u2581oral": 6126,
  "Co": 6127,
  "\u2581sociedades": 6128,
  "\u2581Ali": 6129,
  "ret": 6130,
  "\u2581deliberaciones": 6131,
  "\u2581jeunesse": 6132,
  "gon": 6133,
  "\u2581adecuadas": 6134,
  "\u2581jeux": 6135,
  "81": 6136,
  "\u2581mental": 6137,
  "\u2581montants": 6138,
  "\u2581iniciar": 6139,
  "\u2581estrat\u00e9gico": 6140,
  "\u2581op\u00e9ration": 6141,
  "\u2581Lors": 6142,
  "\u2581t\u00f4t": 6143,
  "\u2581navires": 6144,
  "\u2581combat": 6145,
  "arr\u00eat": 6146,
  "\u2581socio": 6147,
  "\u2581commentaires": 6148,
  "\u2581cher": 6149,
  "inter": 6150,
  "\u2581World": 6151,
  "\u2581Afghanistan": 6152,
  "sk": 6153,
  "\u2581fabricaci\u00f3n": 6154,
  "\u2581cualquiera": 6155,
  "ata": 6156,
  "\u2581banques": 6157,
  "\u2581conduit": 6158,
  "\u2581nacimiento": 6159,
  "\u2581Belgique": 6160,
  "\u2581trabaja": 6161,
  "c\u00eda": 6162,
  "\u2581couvrir": 6163,
  "\u00e9change": 6164,
  "\u2581opinion": 6165,
  "\u2581dormir": 6166,
  "\u2581necesi": 6167,
  "\u2581concr\u00e8tes": 6168,
  "\u2581Gr\u00e8ce": 6169,
  "\u2581utilizados": 6170,
  "\u2581realiza": 6171,
  "\u2581interpretaci\u00f3n": 6172,
  "landia": 6173,
  "kin": 6174,
  "gne": 6175,
  "\u2581temporaire": 6176,
  "\u2581institucionales": 6177,
  "\u2581Premier": 6178,
  "the": 6179,
  "\u2581Estrategia": 6180,
  "\u2581sommet": 6181,
  "\u2581plaintes": 6182,
  "\u2581previa": 6183,
  "\u2581encargados": 6184,
  "\u2581outils": 6185,
  "\u2581P\u00fablica": 6186,
  "IV": 6187,
  "\u2581Rec": 6188,
  "\u2581obtenu": 6189,
  "\u2581allons": 6190,
  "\u2581souligner": 6191,
  "\u2581accord\u00e9e": 6192,
  "ane": 6193,
  "\u2581agent": 6194,
  "\u2581mon\u00e9taire": 6195,
  "SE": 6196,
  "\u2581jo": 6197,
  "\u2581ciertos": 6198,
  "\u2581visi\u00f3n": 6199,
  "\u00edes": 6200,
  "\u2581seguido": 6201,
  "\u2581expres\u00f3": 6202,
  "\u2581contin\u00faa": 6203,
  "\u2581coop\u00e9rer": 6204,
  "\u2581animal": 6205,
  "\u2581contribu\u00e9": 6206,
  "\u2581clara": 6207,
  "\u2581calme": 6208,
  "\u2581sup\u00e9rieure": 6209,
  "\u2581conducto": 6210,
  "\u2581Argentina": 6211,
  "\u258114,": 6212,
  "AN": 6213,
  "\u2581apertura": 6214,
  "\u2581f\u00eate": 6215,
  "\u2581larga": 6216,
  "\u2581musulman": 6217,
  "\u2581pr": 6218,
  "NP": 6219,
  "\u2581Somalia": 6220,
  "\u25811:": 6221,
  "\u2581spatiale": 6222,
  "\u2581introducci\u00f3n": 6223,
  "\u2581suele": 6224,
  "\u2581a\u00e9reo": 6225,
  "gation": 6226,
  "\u2581dirigentes": 6227,
  "\u2581Ol": 6228,
  "\u2581demora": 6229,
  "\u2581continu\u00e9": 6230,
  "\u2581fiesta": 6231,
  "\u2581plaisir": 6232,
  "\u2581estuvo": 6233,
  "\u2581violences": 6234,
  "\u2581juegos": 6235,
  "\u2581Primer": 6236,
  "\u2581reglas": 6237,
  "\u2581culpa": 6238,
  "\u2581Tenien": 6239,
  "\u2581realizada": 6240,
  "\u2581essentiels": 6241,
  "\u2581Act": 6242,
  "\u2581Liban": 6243,
  "\u2581contingents": 6244,
  "\u2581repr\u00e9sentent": 6245,
  "\u2581VIII": 6246,
  "\u2581pr\u00e9voir": 6247,
  "oir": 6248,
  "ega": 6249,
  "\u2581estableci\u00f3": 6250,
  "\u2581afirma": 6251,
  "\u2581Ah": 6252,
  "\u2581prenant": 6253,
  "\u2581Estatuto": 6254,
  "\u2581trouvent": 6255,
  "\u2581notification": 6256,
  "\u2581test": 6257,
  "\u2581report": 6258,
  "ouverture": 6259,
  "].": 6260,
  "\u2581ressort": 6261,
  "\u2581ataques": 6262,
  "\u2581proporci\u00f3n": 6263,
  "ect": 6264,
  "dite": 6265,
  "\u2581diciendo": 6266,
  "\u2581presentadas": 6267,
  "\u2581Pla": 6268,
  "\u2581Nairobi": 6269,
  "tia": 6270,
  "\u2581arma": 6271,
  "ns": 6272,
  "DC": 6273,
  "\u2581sentencia": 6274,
  "\u2581Monte": 6275,
  "\u2581competencias": 6276,
  "\u2581employ\u00e9s": 6277,
  "NA": 6278,
  "\u25813)": 6279,
  "\u2581arr\u00eat\u00e9": 6280,
  "affaire": 6281,
  "\u2581\u00e9nonc\u00e9s": 6282,
  "lianza": 6283,
  "\u2581lire": 6284,
  "form": 6285,
  "\u2581aeropuerto": 6286,
  "\u2581madera": 6287,
  "\u2581disponibilit\u00e9": 6288,
  "\u2581p\u00e1g": 6289,
  "\u2581A\u00f1o": 6290,
  "\u2581institution": 6291,
  "\u2581adquisici\u00f3n": 6292,
  "\u2581pedido": 6293,
  "\u2581mapa": 6294,
  "\u2581celebrar\u00e1": 6295,
  "\u2581B\u00e9lgica": 6296,
  "\u2581officielles": 6297,
  "\u2581fix\u00e9": 6298,
  "\u2581Peter": 6299,
  "\u2581priv\u00e9es": 6300,
  "\u2581representan": 6301,
  "UMA": 6302,
  "ser": 6303,
  "\u2581clima": 6304,
  "\u2581cielo": 6305,
  "mado": 6306,
  "\u258181": 6307,
  "\u2581Chypre": 6308,
  "pli": 6309,
  "\u2581jou\u00e9": 6310,
  "\u2581\u00e9valuations": 6311,
  "\u0153": 6312,
  "\u2581village": 6313,
  "\u2581neuf": 6314,
  "\u2581correo": 6315,
  "\u2581utiles": 6316,
  "\u2581Hoy": 6317,
  "\u2581statistique": 6318,
  "\u2581ratification": 6319,
  "ef": 6320,
  "\u2581administrative": 6321,
  "\u2581entrepris": 6322,
  "\u2581ES": 6323,
  "way": 6324,
  "\u2581communiquer": 6325,
  "FR": 6326,
  "row": 6327,
  "\u2581lleg\u00f3": 6328,
  "\u2581esp\u00e8ces": 6329,
  "/13": 6330,
  "\u2581souci": 6331,
  "bio": 6332,
  "\u2581mediano": 6333,
  "\u2581Kowe\u00eft": 6334,
  "4.": 6335,
  "ute": 6336,
  "\u2581desechos": 6337,
  "\u2581Eu": 6338,
  "garde": 6339,
  "\u2581ins": 6340,
  "2001": 6341,
  "\u2581prennent": 6342,
  "\u2581auront": 6343,
  "\u2581sort": 6344,
  "\u2581Actividades": 6345,
  "\u2581busca": 6346,
  "\u2581pocos": 6347,
  "\u2581ejercer": 6348,
  "-2009": 6349,
  "\u2581considerarse": 6350,
  "\u2581faisait": 6351,
  "64": 6352,
  "\u2581Norv\u00e8ge": 6353,
  "\u2581ind\u00e9pendance": 6354,
  "\u2581Voici": 6355,
  "erie": 6356,
  "\u2581isra\u00e9lienne": 6357,
  "\u2581Prevenci\u00f3n": 6358,
  "\u2581bro": 6359,
  "\u2581Polonia": 6360,
  "\u2581directeurs": 6361,
  "ange": 6362,
  "tta": 6363,
  "\u2581favorables": 6364,
  "\u2581Croacia": 6365,
  "\u2581op\u00e9rationnelles": 6366,
  "\u258198": 6367,
  "\u2581PE": 6368,
  "\u2581entrer": 6369,
  "\u2581fronti\u00e8re": 6370,
  "\u2581sujets": 6371,
  "\u2581viajes": 6372,
  "\u2581delincuencia": 6373,
  "\u2581condamn\u00e9": 6374,
  "\u25811989": 6375,
  "\u2581Cuestiones": 6376,
  "\u2581personales": 6377,
  "\u2581d\u00e9termination": 6378,
  "\u2581CD": 6379,
  "\u2581logrado": 6380,
  "\u2581superar": 6381,
  "\u2581supr\u00eame": 6382,
  "\u2581Islas": 6383,
  "l\u00ed": 6384,
  "\u2581Gre": 6385,
  "und": 6386,
  "tima": 6387,
  "\u2581Dar": 6388,
  "\u2581ej\u00e9rcito": 6389,
  "\u2581consumidores": 6390,
  "\u2581elegir": 6391,
  "\u2581Australie": 6392,
  "ms": 6393,
  "char": 6394,
  "comercializaci\u00f3n": 6395,
  "\u2581universel": 6396,
  "\u2581bio": 6397,
  "\u2581Rome": 6398,
  "\u2581heureux": 6399,
  "\u2581Av": 6400,
  "\u2581bancos": 6401,
  "\u2581entender": 6402,
  "\u2581se\u00f1ora": 6403,
  "\u2581diminution": 6404,
  "\u2581Cam": 6405,
  "\u2581r\u00e9pression": 6406,
  "Je": 6407,
  "cial": 6408,
  "\u2581baisse": 6409,
  "\u2581seguros": 6410,
  "\u2581Finlandia": 6411,
  "\u2581recrut\u00e9": 6412,
  "\u2581n\u00e9gociation": 6413,
  "\u2581\u00e1rea": 6414,
  "\u2581\u00e9labor\u00e9": 6415,
  "\u2581Iran": 6416,
  "\u2581terrestres": 6417,
  "\u2581cuisine": 6418,
  "\u2581inicio": 6419,
  "\u2581bain": 6420,
  "\u2581repr\u00e9sentation": 6421,
  "\u2581pendientes": 6422,
  "d\u00eda": 6423,
  "-5": 6424,
  "\u25811991,": 6425,
  "\u2581Oriental": 6426,
  "\u2581atteinte": 6427,
  "ara": 6428,
  "\u2581perspective": 6429,
  "\u2581lejos": 6430,
  "\u2581signature": 6431,
  "\u2581fui": 6432,
  "\u2581Diario": 6433,
  "\u2581aplicaciones": 6434,
  "/11": 6435,
  "ches": 6436,
  "\u2581proc\u00e9d\u00e9": 6437,
  "\u2581adolescents": 6438,
  "\u2581\u00eeles": 6439,
  "pprovisionnement": 6440,
  "\u2581privadas": 6441,
  "aje": 6442,
  "\u2581da\u00f1o": 6443,
  "\u2581pr\u00f3xima": 6444,
  "OD": 6445,
  "\u2581administrativos": 6446,
  "\u2581formato": 6447,
  "\u2581il\u00edcito": 6448,
  "\u2581funciona": 6449,
  "\u2581compartir": 6450,
  "\u2581edificio": 6451,
  ".1.": 6452,
  "\u2581gobernanza": 6453,
  "\u2581viol": 6454,
  "/63/": 6455,
  "\u2581LES": 6456,
  "\u2581minist\u00e8re": 6457,
  "\u2581utilis\u00e9e": 6458,
  "\u2581placer": 6459,
  "\u2581tendr\u00e1n": 6460,
  "\u2581adaptaci\u00f3n": 6461,
  "\u2581transmisi\u00f3n": 6462,
  "offre": 6463,
  "\u2581concretos": 6464,
  "\u2581juridiction": 6465,
  "\u25812:": 6466,
  "\u2581Adoption": 6467,
  "\u2581essais": 6468,
  "\u2581Dinamarca": 6469,
  "\u2581apport\u00e9": 6470,
  "\u2581organiser": 6471,
  "\u2581autoris\u00e9": 6472,
  "\u2581maestro": 6473,
  "\u2581existants": 6474,
  "\u2581menaces": 6475,
  "\u2581t\u00e9moins": 6476,
  "\u2581discussions": 6477,
  "\u2581vis\u00e9e": 6478,
  "\u2581tardar": 6479,
  "\u2581fournisseurs": 6480,
  "\u2581rubrique": 6481,
  "\u2581participa": 6482,
  "\u2581certaine": 6483,
  "Allemagne": 6484,
  "\u2581Liberia": 6485,
  "\u2581primaire": 6486,
  "\u2581equilibrio": 6487,
  "\u2581potencial": 6488,
  "\u2581metros": 6489,
  "\u2581intervenir": 6490,
  "\u2581ocasiones": 6491,
  "\u2581perder": 6492,
  "illas": 6493,
  "\u2581Gi": 6494,
  "\u2581numerosos": 6495,
  "\u2581\u00edndole": 6496,
  "tec": 6497,
  "\u2581r\u00e9ception": 6498,
  "\u2581considerable": 6499,
  "tergubernamental": 6500,
  "\u2581Fin": 6501,
  "\u2581solidarit\u00e9": 6502,
  "\u2581comisiones": 6503,
  "\u2581consacr\u00e9": 6504,
  "\u2581completamente": 6505,
  "\u2581estilo": 6506,
  "eron": 6507,
  "\u2581prenantes": 6508,
  "\u2581FAO": 6509,
  "\u2581partis": 6510,
  "\u2581merci": 6511,
  "\u00e8s": 6512,
  "\u00e2ge": 6513,
  "\u2581commerciaux": 6514,
  "\u2581indiquer": 6515,
  "\u2581d\u00e9fi": 6516,
  "06": 6517,
  "\u2581identificaci\u00f3n": 6518,
  "\u2581impuestos": 6519,
  "\u2581TV": 6520,
  "\u2581Mientras": 6521,
  "\u2581observadores": 6522,
  "\u2581Questions": 6523,
  "\u2581tellement": 6524,
  "\u2581ben": 6525,
  "\u2581consentimiento": 6526,
  "\u2581manifestations": 6527,
  "IF": 6528,
  "\u2581resta": 6529,
  "spec": 6530,
  "azi": 6531,
  "92": 6532,
  "\u2581Colombie": 6533,
  "\u2581exactamente": 6534,
  "\u2581veo": 6535,
  "grado": 6536,
  "\u2581llevado": 6537,
  "\u2581b\u00e9n\u00e9ficiaires": 6538,
  "ites": 6539,
  "\u2581ml": 6540,
  "tino": 6541,
  "v\u00ed": 6542,
  "\u2581digo": 6543,
  "\u2581distancia": 6544,
  "\u2581Casa": 6545,
  "aise": 6546,
  "rus": 6547,
  "\u2581g\u00e9rer": 6548,
  "\u2581rappeler": 6549,
  "\u2581negociaci\u00f3n": 6550,
  "\u2581deb\u00edan": 6551,
  "\u2581J\u00e9rusalem": 6552,
  "\u2581vieux": 6553,
  "\u2581Juan": 6554,
  "\u2581pr\u00e9cise": 6555,
  "\u2581lecture": 6556,
  "\u2581convenu": 6557,
  "\u2581unit\u00e9": 6558,
  "VI": 6559,
  "\u2581pr\u00e9sent\u00e9e": 6560,
  "\u2581passage": 6561,
  "\u2581conjuntamente": 6562,
  "lait": 6563,
  "\u2581\u00e9conomies": 6564,
  "\u2581diff\u00e9rence": 6565,
  "\u2581proveedores": 6566,
  "cine": 6567,
  "\u2581auditor\u00eda": 6568,
  "\u2581terrible": 6569,
  "\u2581mencionado": 6570,
  "\u2581factor": 6571,
  "\u2581elaborado": 6572,
  "\u2581adresse": 6573,
  "\u2581activo": 6574,
  "\u2581mencionados": 6575,
  "\u2581decidido": 6576,
  "shi": 6577,
  "\u2581relieve": 6578,
  "\u2581adultes": 6579,
  "\u2581expression": 6580,
  "\u2581Pueblo": 6581,
  "\u2581George": 6582,
  "\u2581ouvrir": 6583,
  "\u2581alguno": 6584,
  "\u2581legales": 6585,
  "\u2581ensayos": 6586,
  "\u2581indican": 6587,
  "\u2581investissement": 6588,
  "\u2581demostrado": 6589,
  "\u2581Cr": 6590,
  "RI": 6591,
  "\u2581disposer": 6592,
  "lam": 6593,
  "tema": 6594,
  "\u2581faute": 6595,
  "\u2581manger": 6596,
  "eg": 6597,
  "tir": 6598,
  "\u2581individuales": 6599,
  "h\u00e9ri": 6600,
  "gh": 6601,
  "\u2581respetar": 6602,
  "\u2581software": 6603,
  "\u2581constitution": 6604,
  "ans": 6605,
  "\u2581situado": 6606,
  "cional": 6607,
  "\u2581travaille": 6608,
  "\u2581buques": 6609,
  "din": 6610,
  "2002": 6611,
  "\u2581fraude": 6612,
  "\u2581g\u00e9ographique": 6613,
  "yn": 6614,
  "\u2581numerosas": 6615,
  "\u2581comer": 6616,
  "1).": 6617,
  "\u2581engag\u00e9": 6618,
  "\u2581abajo": 6619,
  "\u2581segura": 6620,
  "\u2581cr\u00edmenes": 6621,
  "\u2581Nigeria": 6622,
  "\u2581fournies": 6623,
  "\u2581Santo": 6624,
  "\u2581strat\u00e9giques": 6625,
  "eh": 6626,
  "\u2581componente": 6627,
  "\u2581communs": 6628,
  "\u2581rendimiento": 6629,
  "entes": 6630,
  "\u2581subsidiaire": 6631,
  "\u2581tch\u00e8que": 6632,
  "\u2581Comunidades": 6633,
  "\u2581occup\u00e9": 6634,
  "\u2581proche": 6635,
  "\u2581vouloir": 6636,
  "\u2581pr\u00e9stamos": 6637,
  "\u2581int\u00e9ress\u00e9s": 6638,
  "\u2581corto": 6639,
  "6%": 6640,
  "\u00e9v": 6641,
  "\u2581comunitarias": 6642,
  "mir": 6643,
  "\u2581Ram": 6644,
  "\u2581escuchar": 6645,
  "\u2581100%": 6646,
  "\u2581gagner": 6647,
  "\u2581particulares": 6648,
  "\u2581morir": 6649,
  "len": 6650,
  "\u2581Administrativo": 6651,
  "\u2581decidir": 6652,
  "\u2581bilaterales": 6653,
  "\u2581choisi": 6654,
  "\u2581modifi\u00e9e": 6655,
  "\u2581produire": 6656,
  "\u2581adecuados": 6657,
  "\u2581depende": 6658,
  "p\u00f3": 6659,
  "\u2581constituer": 6660,
  "\u2581adultos": 6661,
  "\u2581Recursos": 6662,
  "\u2581Sp": 6663,
  "rant": 6664,
  "\u2581envoy\u00e9": 6665,
  "tat": 6666,
  "sos": 6667,
  "\u2581r\u00e9paration": 6668,
  "XX": 6669,
  "\u2581sacar": 6670,
  "\u2581accent": 6671,
  "itt": 6672,
  "\u2581rapportant": 6673,
  "\u2581permita": 6674,
  "\u2581probablement": 6675,
  "\u2581ratificaci\u00f3n": 6676,
  "imos": 6677,
  "\u2581posterior": 6678,
  "\u2581remercier": 6679,
  "\u2581isla": 6680,
  "\u2581possibles": 6681,
  "\u2581similar": 6682,
  "\u2581abus": 6683,
  "\u258183": 6684,
  "\u2581client": 6685,
  "id\u00e9e": 6686,
  "\u2581vio": 6687,
  "\u2581tr\u00e1nsito": 6688,
  "\u2581Pologne": 6689,
  "\u2581orientations": 6690,
  "\u2581int\u00e9ressant": 6691,
  "\u2581ceci": 6692,
  "\u2581despliegue": 6693,
  "\u2581desempleo": 6694,
  "\u2581terminar": 6695,
  "iti": 6696,
  "assurance": 6697,
  "doc": 6698,
  "ili": 6699,
  "\u2581Podr\u00eda": 6700,
  "\u2581conservation": 6701,
  "\u2581HA": 6702,
  "\u2581t\u00e9l\u00e9vision": 6703,
  "iza": 6704,
  "\u2581afectan": 6705,
  "\u2581d\u00e9tails": 6706,
  "\u2581seguir\u00e1": 6707,
  "\u2581IN": 6708,
  "\u2581sala": 6709,
  "existence": 6710,
  "Ch": 6711,
  "\u2581veh\u00edculo": 6712,
  "\u2581mouvements": 6713,
  "\u2581quartier": 6714,
  "\u2581transit": 6715,
  "ures": 6716,
  "\u2581id\u00e9es": 6717,
  "enfants": 6718,
  "\u2581terminado": 6719,
  "\u2581destacar": 6720,
  "1%": 6721,
  "\u2581r\u00e9ussi": 6722,
  "\u2581explique": 6723,
  "\u2581perspectives": 6724,
  "Ho": 6725,
  "\u2581calendario": 6726,
  "\u2581detenidos": 6727,
  "\u2581cour": 6728,
  "\u258113,": 6729,
  "\u2581independientes": 6730,
  "\u2581alumnos": 6731,
  "\u2581presentados": 6732,
  "\u2581scolaire": 6733,
  "vit": 6734,
  "\u2581bosques": 6735,
  "chu": 6736,
  "ken": 6737,
  "\u2581verificaci\u00f3n": 6738,
  "\u2581Development": 6739,
  "\u2581d\u00e9cret": 6740,
  "\u2581stade": 6741,
  "\u2581Ban": 6742,
  "\u2581plantea": 6743,
  "\u2581ofrecen": 6744,
  "\u2581devenu": 6745,
  "\u2581impossible": 6746,
  "/3": 6747,
  "\u2581hospital": 6748,
  "\u2581capaz": 6749,
  "\u2581defensor": 6750,
  "gado": 6751,
  "\u2581C\u00f3mo": 6752,
  "\u2581\u00e9quipements": 6753,
  "igo": 6754,
  "engagement": 6755,
  "\u2581comp\u00e9tents": 6756,
  "ben": 6757,
  "\u2581hermana": 6758,
  "\u2581ido": 6759,
  "mentos": 6760,
  "MP": 6761,
  "tando": 6762,
  "\u2581perdido": 6763,
  "\u2581individus": 6764,
  "tada": 6765,
  "OMC": 6766,
  "\u2581encaminadas": 6767,
  "/20": 6768,
  "\u2581issue": 6769,
  "\u2581tiendra": 6770,
  "\u2581negocios": 6771,
  "\u2581Hemos": 6772,
  "\u2581Leona": 6773,
  "\u2581Deber\u00eda": 6774,
  "\u2581Michael": 6775,
  "xo": 6776,
  "71": 6777,
  "lf": 6778,
  "\u2581Ku": 6779,
  "lus": 6780,
  "\u2581Ham": 6781,
  "\u2581second": 6782,
  "ost": 6783,
  "\u2581Base": 6784,
  "\u2581officiels": 6785,
  "\u2581Real": 6786,
  "\u2581estatuto": 6787,
  "scu": 6788,
  "91": 6789,
  "\u2581consid\u00e9rer": 6790,
  "\u2581gama": 6791,
  "\u2581effectu\u00e9": 6792,
  "ers": 6793,
  "\u2581f\u00e9d\u00e9ral": 6794,
  "\u2581trente": 6795,
  "\u2581partout": 6796,
  "jas": 6797,
  "gues": 6798,
  "\u2581brut": 6799,
  "\u2581AL": 6800,
  "\u2581ocupado": 6801,
  "\u2581dispositifs": 6802,
  "intervention": 6803,
  "\u2581vision": 6804,
  "\u2581Discriminaci\u00f3n": 6805,
  "\u2581pens": 6806,
  "86": 6807,
  "Parmi": 6808,
  "\u2581venido": 6809,
  "\u2581Organiza": 6810,
  "/56/": 6811,
  "examiner": 6812,
  "\u2581espiritual": 6813,
  "\u00eds": 6814,
  "s\u00ed": 6815,
  "\u2581couleur": 6816,
  "\u2581Finlande": 6817,
  "\u2581Nada": 6818,
  "\u2581m\u00faltiples": 6819,
  "\u25812011.": 6820,
  "charge": 6821,
  "\u2581plainte": 6822,
  "\u2581Bal": 6823,
  "bru": 6824,
  "cora": 6825,
  "\u2581historique": 6826,
  "\u2581israel\u00edes": 6827,
  "\u2581tonnes": 6828,
  "\u2581Ci": 6829,
  "\u2581televisi\u00f3n": 6830,
  "\u2581Fuerza": 6831,
  "\u2581tendencia": 6832,
  "\u2581constate": 6833,
  "ieron": 6834,
  "anti": 6835,
  "\u2581voil\u00e0": 6836,
  "-11": 6837,
  "\u2581quinto": 6838,
  "\u2581pase": 6839,
  "\u2581ferai": 6840,
  "\u2581logros": 6841,
  "\u2581Pren": 6842,
  "7)": 6843,
  "r\u00ed": 6844,
  "\u2581destination": 6845,
  "\u2581procede": 6846,
  "\u2581\u00e9tablies": 6847,
  "\u2581alimentaci\u00f3n": 6848,
  "\u2581cargos": 6849,
  "aw": 6850,
  "\u2581r\u00e9alis\u00e9": 6851,
  "\u2581Ghana": 6852,
  "\u2581fol": 6853,
  "\u2581puisque": 6854,
  "\u2581actifs": 6855,
  "\u2581emp": 6856,
  "\u2581carrera": 6857,
  "\u2581Procureur": 6858,
  "\u2581compa\u00f1\u00eda": 6859,
  "duc": 6860,
  "\u2581v\u00e9hicule": 6861,
  "\u2581obtenus": 6862,
  "\u2581\u00e9tape": 6863,
  "\u2581iv": 6864,
  "\u2581certificado": 6865,
  "\u2581multilateral": 6866,
  "dido": 6867,
  "\u2581aun": 6868,
  "vent": 6869,
  "iennes": 6870,
  "uis": 6871,
  "hum": 6872,
  "\u2581constat\u00e9": 6873,
  "\u2581ax\u00e9e": 6874,
  "\u2581im\u00e1genes": 6875,
  "gor": 6876,
  "\u2581recherches": 6877,
  "\u2581hogares": 6878,
  "\u2581dur": 6879,
  "\u2581pr\u00e9alable": 6880,
  "\u2581mala": 6881,
  "\u2581pr\u00e9paratoire": 6882,
  "\u2581uniforme": 6883,
  "\u2581reconocer": 6884,
  "\u2581abrir": 6885,
  "\u2581cinqui\u00e8me": 6886,
  "illos": 6887,
  "\u2581documentation": 6888,
  "cept": 6889,
  "\u2581motifs": 6890,
  "\u2581peri\u00f3dicos": 6891,
  "igu": 6892,
  "\u2581accept\u00e9": 6893,
  "\u2581tendencias": 6894,
  "\u2581Otras": 6895,
  "\u2581saisi": 6896,
  "rm": 6897,
  "\u2581s\u00e9lection": 6898,
  "\u2581\u00e9cole": 6899,
  "OP": 6900,
  "\u2581moteur": 6901,
  "\u2581voz": 6902,
  "bat": 6903,
  "AS": 6904,
  "\u2581pose": 6905,
  "\u2581buscando": 6906,
  "\u2581poursuites": 6907,
  "\u2581probablemente": 6908,
  "\u2581cliente": 6909,
  "\u2581use": 6910,
  "100": 6911,
  "vid": 6912,
  "NGL": 6913,
  "\u2581Danemark": 6914,
  "\u2581augmenter": 6915,
  "mus": 6916,
  "\u2581pacifique": 6917,
  "ert": 6918,
  "thiopie": 6919,
  "\u2581Mucha": 6920,
  "\u2581Adjunto": 6921,
  "lega": 6922,
  "\u2581quedar": 6923,
  "\u2581pudo": 6924,
  "olu": 6925,
  "\u2581iraquien": 6926,
  "e\u00f1a": 6927,
  "\u2581hagan": 6928,
  "\u2581Croatie": 6929,
  "\u2581voit": 6930,
  "\u2581residentes": 6931,
  "\u2581\u00e9quipes": 6932,
  "\u2581Dos": 6933,
  "\u2581voto": 6934,
  "\u2581reconna\u00eetre": 6935,
  "r\u00e9gional": 6936,
  "\u2581sexuales": 6937,
  "adh\u00e9sion": 6938,
  "\u2581aumentado": 6939,
  "\u2581compl\u00e9mentaires": 6940,
  "movi": 6941,
  "\u2581potentiel": 6942,
  "ati": 6943,
  "\u2581extensi\u00f3n": 6944,
  "\u2581vacaciones": 6945,
  "\u2581a\u00f1adir": 6946,
  "RA": 6947,
  "\u2581hice": 6948,
  "issant": 6949,
  "ks": 6950,
  "\u2581initial": 6951,
  "\u2581instrucciones": 6952,
  "\u2581cartes": 6953,
  "applique": 6954,
  "\u2581r\u00e9sultant": 6955,
  "Isra\u00ebl": 6956,
  "tru": 6957,
  "\u25811/": 6958,
  "\u2581\u00e9lev\u00e9s": 6959,
  "\u2581tourisme": 6960,
  "\u2581Guin\u00e9e": 6961,
  "\u2581d\u00e9ploiement": 6962,
  "\u2581llamada": 6963,
  "\u2581reconna\u00eet": 6964,
  "\u2581comida": 6965,
  "\u2581Toute": 6966,
  "\u2581disparu": 6967,
  "\u2581Contact": 6968,
  "\u2581almacenamiento": 6969,
  "\u2581producido": 6970,
  "\u2581l\u00edneas": 6971,
  "\u2581d\u00fbment": 6972,
  "-13": 6973,
  "\u2581autorisation": 6974,
  "5)": 6975,
  "2000": 6976,
  "\u2581imm": 6977,
  "\u2581Washington": 6978,
  "donn": 6979,
  "\u2581Marruecos": 6980,
  "\u2581directo": 6981,
  "\u2581reprise": 6982,
  "pla": 6983,
  "\u2581reales": 6984,
  "GO": 6985,
  "utiliser": 6986,
  "UC": 6987,
  "\u2581veulent": 6988,
  "RE": 6989,
  "\u2581laiss\u00e9": 6990,
  "gie": 6991,
  "aj": 6992,
  "\u2581preocupaciones": 6993,
  "lez": 6994,
  "\u2581blanco": 6995,
  "\u2581cumple": 6996,
  "\u2581vivent": 6997,
  "zz": 6998,
  "\u2581m\u00e9dica": 6999,
  "\u2581nations": 7000,
  "\u2581morts": 7001,
  "\u2581million": 7002,
  "\u2581mod\u00e8les": 7003,
  "\u2581Nuestra": 7004,
  "\u2581dessus": 7005,
  "\u2581suelo": 7006,
  "zer": 7007,
  "\u2581modificaciones": 7008,
  "\u2581Palestine": 7009,
  "\u2581comunitarios": 7010,
  "\u2581desplazados": 7011,
  "\u2581rem\u00e9dier": 7012,
  "\u2581observateurs": 7013,
  "este": 7014,
  "\u2581ethniques": 7015,
  "san": 7016,
  "\u2581controlar": 7017,
  "\u2581Somalie": 7018,
  "\u2581encontrado": 7019,
  "\u2581mus": 7020,
  "\u2581jugement": 7021,
  "\u2581Luxembourg": 7022,
  "cour": 7023,
  "\u2581rapporteur": 7024,
  "\u2581b\u00e9b\u00e9": 7025,
  "\u2581cru": 7026,
  "\u2581\u00e9tats": 7027,
  "raci\u00f3n": 7028,
  "lage": 7029,
  "\u2581Os": 7030,
  "\u2581celebra": 7031,
  "\u2581Nicaragua": 7032,
  "__": 7033,
  "\u2581chap": 7034,
  "\u2581pourront": 7035,
  "\u2581d\u00e9pend": 7036,
  "\u2581piensa": 7037,
  "\u2581quiera": 7038,
  "82": 7039,
  "ral": 7040,
  "\u2581influencia": 7041,
  "\u2581conexas": 7042,
  "iff": 7043,
  "\u2581flux": 7044,
  "\u2581toneladas": 7045,
  "ento": 7046,
  "\u2581secondaire": 7047,
  "\u2581Aprobaci\u00f3n": 7048,
  "53": 7049,
  "neuvi\u00e8me": 7050,
  "\u2581Fais": 7051,
  "\u2581integral": 7052,
  "\u2581Er": 7053,
  "\u2581st": 7054,
  "\u2581pourrais": 7055,
  "rd": 7056,
  "\u2581ciencia": 7057,
  "\u2581appropri\u00e9e": 7058,
  "\u2581siente": 7059,
  "\u2581Jerusal\u00e9n": 7060,
  "\u2581r\u00e9pond": 7061,
  "\u2581Buena": 7062,
  "\u2581debajo": 7063,
  "\u2581Communaut\u00e9s": 7064,
  "\u2581monsieur": 7065,
  "\u2581hacerse": 7066,
  "art\u00edculo": 7067,
  "\u2581queremos": 7068,
  "\u2581existantes": 7069,
  "\u2581viola": 7070,
  "\u2581perspectivas": 7071,
  "\u2581Embajador": 7072,
  "\u2581m\u00e8tres": 7073,
  "\u2581temporal": 7074,
  "avons": 7075,
  "\u2581entiende": 7076,
  "\u2581limiter": 7077,
  "\u2581resumen": 7078,
  "\u2581Cas": 7079,
  "\u00a1": 7080,
  "\u2581Agencia": 7081,
  "Puede": 7082,
  "low": 7083,
  "\u2581accepter": 7084,
  "8)": 7085,
  "aciones": 7086,
  "ala": 7087,
  "\u2581comp\u00e9tente": 7088,
  "\u2581aprender": 7089,
  "\u2581Eco": 7090,
  "\u2581Robert": 7091,
  "\u2581c\u00e1rcel": 7092,
  "\u2581desaf\u00edos": 7093,
  "\u2581cadres": 7094,
  "\u2581identificar": 7095,
  "\u2581m\u00e9dicaux": 7096,
  "\u2581Syst\u00e8me": 7097,
  "\u25812014,": 7098,
  "\u2581agir": 7099,
  "\u2581exhorta": 7100,
  "PS": 7101,
  "\u2581sc\u00e8ne": 7102,
  "\u2581appliqu\u00e9es": 7103,
  "\u2581re\u00e7ues": 7104,
  "\u2581facilement": 7105,
  "\u2581port\u00e9": 7106,
  "\u2581existence": 7107,
  "obligation": 7108,
  "\u2581relever": 7109,
  "\u2581v\u00ednculos": 7110,
  "\u2581Ceci": 7111,
  "\u2581Cat": 7112,
  "\u2581futuras": 7113,
  "\u2581criterio": 7114,
  "iente": 7115,
  "\u2581r\u00e9pondu": 7116,
  "ort": 7117,
  "inqui\u00e8te": 7118,
  "suite": 7119,
  "\u2581afectadas": 7120,
  "\u2581nombres": 7121,
  "\u2581D\u00eda": 7122,
  "\u2581financiar": 7123,
  "\u00een": 7124,
  "\u2581Eliminaci\u00f3n": 7125,
  "\u2581partidos": 7126,
  "\u2581restent": 7127,
  "\u2581efectivos": 7128,
  "huiti\u00e8me": 7129,
  "\u2581explicar": 7130,
  "\u00c9tats": 7131,
  "Office": 7132,
  "put": 7133,
  "\u2581dangereux": 7134,
  "Los": 7135,
  "\u2581b\u00e1sica": 7136,
  "\u2581aprobadas": 7137,
  "\u2581normativa": 7138,
  "t\u00fa": 7139,
  "\u2581ganar": 7140,
  "\u2581m\u00e9": 7141,
  "\u2581petr\u00f3leo": 7142,
  "\u2581recibi\u00f3": 7143,
  "enne": 7144,
  "\u2581indicar": 7145,
  "top": 7146,
  "\u2581Maroc": 7147,
  "\u2581pod\u00edan": 7148,
  "\u2581racismo": 7149,
  "out": 7150,
  "\u2581applications": 7151,
  "\u2581publications": 7152,
  "\u2581CI": 7153,
  "\u2581objets": 7154,
  "\u2581permiso": 7155,
  "\u2581ateliers": 7156,
  "\u2581massive": 7157,
  "\u2581c\u00e9l\u00e9br": 7158,
  "\u2581valoir": 7159,
  "\u2581Pol\u00edticos": 7160,
  "\u2581discussion": 7161,
  "\u2581cre\u00f3": 7162,
  "TM": 7163,
  "\u2581mortalit\u00e9": 7164,
  "\u25811998.": 7165,
  "\u2581listo": 7166,
  "doras": 7167,
  "\u2581cometido": 7168,
  "\u2581naciones": 7169,
  "\u2581800": 7170,
  "\u2581integrada": 7171,
  "\u00e8te": 7172,
  "\u2581continua": 7173,
  "OK": 7174,
  "\u2581parecer": 7175,
  "\u2581continu": 7176,
  "\u2581esp\u00e9r": 7177,
  "\u2581encima": 7178,
  "/2006": 7179,
  "\u2581funcionario": 7180,
  "\u2581commande": 7181,
  "\u2581informer": 7182,
  "\u2581Veuillez": 7183,
  "/16": 7184,
  "\u2581couverture": 7185,
  "\u2581residuos": 7186,
  "\u2581sabemos": 7187,
  "\u2581contr\u00f4ler": 7188,
  "iera": 7189,
  "\u2581utilizan": 7190,
  "\u2581vacances": 7191,
  "\u2581compatible": 7192,
  "\u2581capitaux": 7193,
  "\u2581soldats": 7194,
  "uv": 7195,
  "\u2581coordonner": 7196,
  "attend": 7197,
  "\u2581destinado": 7198,
  "firm": 7199,
  "\u2581entendre": 7200,
  "\u2581juez": 7201,
  "\u2581Men": 7202,
  "ole": 7203,
  "212": 7204,
  "eb": 7205,
  "\u25812012.": 7206,
  "\u00e9tablir": 7207,
  "\u2581commerciale": 7208,
  "300": 7209,
  "\u2581r\u00eave": 7210,
  "ray": 7211,
  "\u2581association": 7212,
  "\u2581adopt\u00f3": 7213,
  "\u2581ind\u00e9pendante": 7214,
  "\u2581int\u00e9grer": 7215,
  "tivas": 7216,
  "ward": 7217,
  "\u2581ultra": 7218,
  "\u2581Hait\u00ed": 7219,
  "\u2581effort": 7220,
  "\u2581negro": 7221,
  "\u258130%": 7222,
  "\u2581enregistr\u00e9": 7223,
  "\u2581incorporaci\u00f3n": 7224,
  "mat": 7225,
  "\u2581penales": 7226,
  "aura": 7227,
  "\u2581voulait": 7228,
  "\u2581totalement": 7229,
  "\u2581particuli\u00e8res": 7230,
  "siderablemente": 7231,
  "ose": 7232,
  "pare": 7233,
  "\u2581remercie": 7234,
  "\u2581directe": 7235,
  "\u2581mondialisation": 7236,
  "\u2581observaci\u00f3n": 7237,
  "\u2581interdit": 7238,
  "\u2581attendre": 7239,
  "\u2581lectura": 7240,
  "\u2581val": 7241,
  "\u2581quelles": 7242,
  "\u2581tro": 7243,
  "\u2581s\u00e9rieux": 7244,
  "bol": 7245,
  "\u2581llev\u00f3": 7246,
  "ivo": 7247,
  "tons": 7248,
  "\u2581film": 7249,
  "\u2581Honduras": 7250,
  "\u2581Martin": 7251,
  "\u2581appropri\u00e9": 7252,
  "\u2581Soulign": 7253,
  "ndez": 7254,
  "\u2581quieren": 7255,
  "\u2581assure": 7256,
  "mina": 7257,
  "\u2581Chapitre": 7258,
  "\u258178": 7259,
  "monio": 7260,
  "ug": 7261,
  "\u2581\u00e9tnico": 7262,
  "\u2581dommages": 7263,
  "\u2581d\u00e9cide": 7264,
  "EP": 7265,
  "\u2581consacr\u00e9e": 7266,
  "a\u00eet": 7267,
  "\u2581Direct": 7268,
  "\u2581derri\u00e8re": 7269,
  "terra": 7270,
  "\u2581noticias": 7271,
  "\u2581Hong": 7272,
  "gel": 7273,
  "ncia": 7274,
  "\u2581annuelle": 7275,
  "\u2581culturelle": 7276,
  "ujourd": 7277,
  "\u00e8ne": 7278,
  "\u2581net": 7279,
  "\u2581seres": 7280,
  "\u2581t\u00edo": 7281,
  "\u2581mortalidad": 7282,
  "\u2581fruits": 7283,
  "MO": 7284,
  "\u2581mejoras": 7285,
  "lip": 7286,
  "\u2581contaminaci\u00f3n": 7287,
  "rais": 7288,
  "\u2581analizar": 7289,
  "\u2581alentar": 7290,
  "\u2581pr\u00e9cis": 7291,
  "\u2581preuves": 7292,
  "\u2581beau": 7293,
  "\u2581comienzo": 7294,
  "\u2581motor": 7295,
  "\u2581Padre": 7296,
  "\u2581organizada": 7297,
  "bal": 7298,
  "agissant": 7299,
  "\u2581May": 7300,
  "vier": 7301,
  "\u2581Chile": 7302,
  "tres": 7303,
  "\u2581arm\u00e9e": 7304,
  "\u2581estatal": 7305,
  "\u2581legislativas": 7306,
  "\u2581entendimiento": 7307,
  "ua": 7308,
  "\u2581meurtre": 7309,
  "appliquer": 7310,
  "\u2581dignit\u00e9": 7311,
  "\u00e9quipe": 7312,
  "\u2581expos\u00e9": 7313,
  "\u2581bande": 7314,
  "\u2581Resoluci\u00f3n": 7315,
  "\u2581campagnes": 7316,
  "\u2581comprennent": 7317,
  "\u2581cen": 7318,
  "\u2581disfrutar": 7319,
  "\u2581ethnique": 7320,
  "\u2581sortie": 7321,
  "\u2581iglesia": 7322,
  "/18": 7323,
  "\u2581ra\u00edz": 7324,
  "nez": 7325,
  "Agence": 7326,
  "septi\u00e8me": 7327,
  "\u2581110": 7328,
  "\u2581COMMISSION": 7329,
  "93": 7330,
  "\u2581electr\u00f3nica": 7331,
  "\u2581blanc": 7332,
  "\u2581Ob": 7333,
  "\u2581significativa": 7334,
  "\u2581prestando": 7335,
  "\u2581adopten": 7336,
  "\u2581sensibilizaci\u00f3n": 7337,
  "\u2581exactement": 7338,
  "\u2581transmission": 7339,
  "\u2581At": 7340,
  "\u2581rencontre": 7341,
  "Cu\u00e1l": 7342,
  "\u2581vaste": 7343,
  "nne": 7344,
  "\u2581secret": 7345,
  "\u2581acceder": 7346,
  "\u2581250": 7347,
  "\u2581modifiant": 7348,
  "over": 7349,
  "\u2581similaires": 7350,
  "\u2581poser": 7351,
  "ved": 7352,
  "\u2581options": 7353,
  "lizaci\u00f3n": 7354,
  "\u2581appris": 7355,
  "\u2581enseignants": 7356,
  "\u2581nueve": 7357,
  "\u2581degr\u00e9": 7358,
  "\u2581Global": 7359,
  "met": 7360,
  "\u2581devront": 7361,
  "\u2581noms": 7362,
  "\u2581publicaciones": 7363,
  "2004": 7364,
  "\u2581conclure": 7365,
  "\u2581patrocinado": 7366,
  "\u2581transparente": 7367,
  "\u2581religioso": 7368,
  "\u2581gauche": 7369,
  "\u2581cultures": 7370,
  "\u2581194": 7371,
  "LL": 7372,
  "\u2581physiques": 7373,
  "\u2581destaca": 7374,
  "\u2581seuls": 7375,
  "\u2581ilegal": 7376,
  "\u2581hubo": 7377,
  "how": 7378,
  "\u2581atr\u00e1s": 7379,
  "\u2581Personne": 7380,
  "\u2581arrangements": 7381,
  "\u2581\u00c9ta": 7382,
  "\u2581p\u00e9nitentiaire": 7383,
  "\u2581modelos": 7384,
  "IE": 7385,
  "ip": 7386,
  "\u2581Qatar": 7387,
  "iro": 7388,
  "\u2581transformation": 7389,
  "\u25811987": 7390,
  "\u2581gar\u00e7ons": 7391,
  "\u2581inmediato": 7392,
  "\u2581gu\u00eda": 7393,
  "\u2581campamento": 7394,
  "TI": 7395,
  "\u00fc": 7396,
  "\u2581comportamiento": 7397,
  "lay": 7398,
  "mpe": 7399,
  "\u2581lib\u00e9ration": 7400,
  "\u00e9ro": 7401,
  "\u2581spirituel": 7402,
  "\u2581Algunas": 7403,
  "\u2581ataque": 7404,
  "ci\u00f3": 7405,
  "\u2581tendr\u00eda": 7406,
  "\u2581retrait": 7407,
  "\u2581vidas": 7408,
  "amiento": 7409,
  "\u2581r\u00e9cente": 7410,
  "\u2581cient\u00edficos": 7411,
  "\u2581limitaciones": 7412,
  "vir": 7413,
  "\u2581engage": 7414,
  "immigration": 7415,
  "\u2581profiter": 7416,
  "\u2581Mesures": 7417,
  "\u2581instalaci\u00f3n": 7418,
  "\u2581Sostenible": 7419,
  "\u2581perdre": 7420,
  "\u2581ministre": 7421,
  "\u2581malos": 7422,
  "\u2581convertir": 7423,
  "\u2581Mantenimiento": 7424,
  "\u2581faudra": 7425,
  "\u2581m\u00fasica": 7426,
  "\u2581rappel\u00e9": 7427,
  "pour": 7428,
  "\u2581variedad": 7429,
  "TION": 7430,
  "greg": 7431,
  "\u2581permiten": 7432,
  "\u2581materias": 7433,
  "hr": 7434,
  "\u2581feliz": 7435,
  "\u2581quantit\u00e9s": 7436,
  "\u258129.": 7437,
  "\u2581pasando": 7438,
  "\u2581bons": 7439,
  "\u2581club": 7440,
  "\u00c9glise": 7441,
  "\u2581elevado": 7442,
  "\u2581compl\u00e8tement": 7443,
  "\u2581capitale": 7444,
  "\u2581agradecer": 7445,
  "\u2581foro": 7446,
  "\u2581appar": 7447,
  "\u2581nomination": 7448,
  "llo": 7449,
  "\u2581Ejecuci\u00f3n": 7450,
  "\u2581Lorsqu": 7451,
  "\u2581libros": 7452,
  "rend": 7453,
  "\u2581examina": 7454,
  "FI": 7455,
  "\u2581tribu": 7456,
  "\u2581generaci\u00f3n": 7457,
  "\u2581espec\u00edfica": 7458,
  "lim": 7459,
  "\u2581Bel": 7460,
  "\u2581Aucune": 7461,
  "\u2581(2006)": 7462,
  "\u2581dimension": 7463,
  "\u2581engager": 7464,
  "poli": 7465,
  "\u2581partido": 7466,
  "\u25815%": 7467,
  "\u2581Ello": 7468,
  "rac": 7469,
  "\u2581concluir": 7470,
  "\u2581dose": 7471,
  "\u2581\u00e9nonc\u00e9es": 7472,
  "\u2581totalidad": 7473,
  "\u2581reconstruction": 7474,
  "\u2581ACP": 7475,
  "\u2581delante": 7476,
  "\u2581d\u00e9c\u00e8s": 7477,
  "\u2581textos": 7478,
  "uni": 7479,
  "\u2581trimestre": 7480,
  "\u2581excelente": 7481,
  "\u2581verdadera": 7482,
  "\u2581Europeas": 7483,
  "\u2581effectif": 7484,
  "\u2581garantiza": 7485,
  "\u2581reparaci\u00f3n": 7486,
  "\u2581concreto": 7487,
  "\u2581duro": 7488,
  "\u2581administrativa": 7489,
  "\u2581acc": 7490,
  "\u2581Bre": 7491,
  "/17": 7492,
  "\u2581[1],": 7493,
  "\u2581identit\u00e9": 7494,
  "\u2581discriminatoire": 7495,
  "\u2581banque": 7496,
  "\u2581escucha": 7497,
  "\u2581all\u00e9": 7498,
  "\u2581Fo": 7499,
  "\u2581mencionadas": 7500,
  "\u2581Congreso": 7501,
  "\u2581stockage": 7502,
  "\u2581Jos\u00e9": 7503,
  "\u2581migraci\u00f3n": 7504,
  "\u2581logistique": 7505,
  "\u2581ind\u00e9pendants": 7506,
  "\u2581anniversaire": 7507,
  "oja": 7508,
  "\u2581vital": 7509,
  "\u2581effectuer": 7510,
  "\u2581innovaci\u00f3n": 7511,
  "\u2581relativement": 7512,
  "\u2581africains": 7513,
  "rias": 7514,
  "\u2581solidaridad": 7515,
  "jar": 7516,
  "pon": 7517,
  "\u2581igualmente": 7518,
  "\u2581permitan": 7519,
  "\u2581fasse": 7520,
  "\u2581musique": 7521,
  "\u2581inspecci\u00f3n": 7522,
  "\u2581Strat\u00e9gie": 7523,
  "\u2581existente": 7524,
  "\u2581Luxemburgo": 7525,
  "\u2581visites": 7526,
  "Fi": 7527,
  "\u2581presentan": 7528,
  "rado": 7529,
  "\u2581suffit": 7530,
  "\u2581requ\u00eate": 7531,
  "94": 7532,
  "\u258101": 7533,
  "\u2581cifra": 7534,
  "\u2581descarga": 7535,
  "\u2581Statut": 7536,
  "\u2581dignidad": 7537,
  "\u2581reclama": 7538,
  "200": 7539,
  "\u2581Checa": 7540,
  "\u2581voisins": 7541,
  "\u2581chacune": 7542,
  "\u2581ph\u00e9nom\u00e8ne": 7543,
  "\u2581Sou": 7544,
  "\u2581calcul": 7545,
  "\u2581surface": 7546,
  "\u2581Pr\u00e9": 7547,
  "ska": 7548,
  "\u2581pouvaient": 7549,
  "\u2581especie": 7550,
  "far": 7551,
  "\u2581Roumanie": 7552,
  "\u2581Pues": 7553,
  "\u2581demostrar": 7554,
  "\u2581secundaria": 7555,
  "\u2581concept": 7556,
  "Z\u00e9lande": 7557,
  "\u2581director": 7558,
  "\u2581Alta": 7559,
  "\u2581detallada": 7560,
  "\u2581organis\u00e9es": 7561,
  "\u2581invit\u00e9s": 7562,
  "\u2581fre": 7563,
  "\u2581(1999)": 7564,
  "\u2581intervenciones": 7565,
  "main": 7566,
  "Esta": 7567,
  "\u2581desempe\u00f1o": 7568,
  "\u2581rendi": 7569,
  "\u2581seminarios": 7570,
  "\u2581dossiers": 7571,
  "\u2581Certaine": 7572,
  "\u2581Poblaci\u00f3n": 7573,
  "\u2581mantiene": 7574,
  "ER": 7575,
  "ber\u00edamos": 7576,
  "\u2581buenos": 7577,
  "dit": 7578,
  "\u2581ext\u00e9rieur": 7579,
  "\u2581metas": 7580,
  "\u2581coll\u00e8gues": 7581,
  "\u2581privados": 7582,
  "\u2581potencia": 7583,
  "\u2581Se\u00f1ora": 7584,
  "\u2581d\u00e9fini": 7585,
  "\u2581Com\u00fan": 7586,
  "\u2581impuesto": 7587,
  "\u2581Park": 7588,
  "\u2581Breta\u00f1a": 7589,
  "test": 7590,
  "\u2581escolar": 7591,
  "\u2581saisie": 7592,
  "\u2581Moldova": 7593,
  "toria": 7594,
  "c\u00f3mo": 7595,
  "\u2581sue\u00f1o": 7596,
  "\u2581lettres": 7597,
  "\u2581\u00e1reas": 7598,
  "\u2581Infan": 7599,
  "bour": 7600,
  "\u2581bient\u00f4t": 7601,
  "\u2581Investigaci\u00f3n": 7602,
  "\u2581remplacer": 7603,
  "\u2581participant": 7604,
  "\u2581organisme": 7605,
  "\u2581portent": 7606,
  "\u2581Equipo": 7607,
  "ense": 7608,
  "war": 7609,
  "\u2581dor": 7610,
  "\u2581obligatorio": 7611,
  "\u2581comprensi\u00f3n": 7612,
  "PD": 7613,
  "\u25813:": 7614,
  "\u2581objetos": 7615,
  "\u2581provenance": 7616,
  "\u2581reciben": 7617,
  "\u2581Deuxi\u00e8me": 7618,
  "\u2581registre": 7619,
  "\u2581souverainet\u00e9": 7620,
  "cion": 7621,
  "\u2581TIC": 7622,
  "\u2581Air": 7623,
  "\u2581\u00e1rabe": 7624,
  "\u2581incremento": 7625,
  "\u2581investigar": 7626,
  "\u2581derivados": 7627,
  "\u2581d\u00e9coulant": 7628,
  "info": 7629,
  "\u258115,": 7630,
  "ACIONES": 7631,
  "\u2581tomando": 7632,
  "\u2581sec": 7633,
  "d\u00e9jeuner": 7634,
  "\u2581via": 7635,
  "\u2581vis\u00e9": 7636,
  "\u2581celebradas": 7637,
  "\u2581durables": 7638,
  "sus": 7639,
  "iya": 7640,
  "\u2581jugar": 7641,
  "\u2581espagnol": 7642,
  "are": 7643,
  "\u2581manifiesto": 7644,
  "\u2581r\u00e9conciliation": 7645,
  "\u2581soberan\u00eda": 7646,
  "gn\u00e9": 7647,
  "\u2581dirigidas": 7648,
  "\u2581professionnel": 7649,
  "\u2581ajouter": 7650,
  "avant": 7651,
  "\u2581Tar": 7652,
  "\u2581NC": 7653,
  "well": 7654,
  "\u25811996.": 7655,
  "\u2581appuie": 7656,
  "\u2581Direction": 7657,
  "\u2581th\u00e8mes": 7658,
  "ash": 7659,
  "\u2581requis": 7660,
  "\u2581coin": 7661,
  "ets": 7662,
  "hal": 7663,
  "ances": 7664,
  "\u2581palestinienne": 7665,
  "\u2581Tre": 7666,
  "\u258121,": 7667,
  "\u2581crucial": 7668,
  "\u2581vecinos": 7669,
  "\u2581formuler": 7670,
  "rier": 7671,
  "\u2581pos": 7672,
  "\u2581Zimbabwe": 7673,
  "\u2581ejemplos": 7674,
  "\u2581penas": 7675,
  "\u2581promedio": 7676,
  "\u2581informaciones": 7677,
  "\u2581Quinta": 7678,
  "\u2581finalidad": 7679,
  "\u2581ideal": 7680,
  "\u2581chang\u00e9": 7681,
  "nder": 7682,
  "\u2581ejecutar": 7683,
  "\u2581consulter": 7684,
  "\u2581prioritaires": 7685,
  "\u00e7a": 7686,
  "\u2581\u00e9tablissant": 7687,
  "\u25811995.": 7688,
  "\u2581trouvera": 7689,
  "nc": 7690,
  "\u2581r\u00e9el": 7691,
  "orn": 7692,
  "\u2581tenues": 7693,
  "\u2581ensayo": 7694,
  "\u2581gamme": 7695,
  "\u2581Cons": 7696,
  "\u2581Op": 7697,
  "\u2581futur": 7698,
  "Cree": 7699,
  "\u2581establecida": 7700,
  "\u2581pr\u00e9server": 7701,
  "\u2581qu\u00edmicos": 7702,
  "\u2581adoptada": 7703,
  "\u2581r\u00e9gissant": 7704,
  "\u2581continuera": 7705,
  "\u2581Chef": 7706,
  "\u2581ocurre": 7707,
  "\u2581preocup": 7708,
  "\u2581Segunda": 7709,
  "\u2581consciente": 7710,
  "\u2581respectivos": 7711,
  "\u2581r\u00e9sidence": 7712,
  "\u2581COMISI\u00d3N": 7713,
  "ep": 7714,
  "\u2581erreur": 7715,
  "-2003": 7716,
  "\u2581West": 7717,
  "\u2581estimaciones": 7718,
  "\u2581d\u00e9sir": 7719,
  "\u2581Liechtenstein": 7720,
  "\u2581tre": 7721,
  "\u2581modificado": 7722,
  "\u2581all\u00e9gations": 7723,
  "\u2581suppose": 7724,
  "\u2581XXI": 7725,
  "\u2581hambre": 7726,
  "\u2581Fecha": 7727,
  "\u2581adopt\u00e9s": 7728,
  "nel": 7729,
  "\u2581ropa": 7730,
  "\u2581a\u00e9rien": 7731,
  "\u2581brinda": 7732,
  "\u2581d\u00e9finis": 7733,
  "auto": 7734,
  "\u2581pire": 7735,
  "\u2581li\u00e9e": 7736,
  "MIS": 7737,
  "\u2581concernent": 7738,
  "\u2581Cinqui\u00e8me": 7739,
  "\u2581Tan": 7740,
  "\u2581op": 7741,
  "\u2581pelo": 7742,
  "\u2581especies": 7743,
  "\\": 7744,
  "ffe": 7745,
  "\u2581Inc": 7746,
  "\u2581publicado": 7747,
  "\u2581Pat": 7748,
  "\u2581serais": 7749,
  "\u2581Necesita": 7750,
  "\u2581agente": 7751,
  "\u2581\u00e9vidence": 7752,
  "\u2581pr\u00e9visions": 7753,
  "\u2581conexi\u00f3n": 7754,
  "\u2581Cabe": 7755,
  "\u00e9chelle": 7756,
  "view": 7757,
  "\u2581acquitter": 7758,
  "\u2581pensiones": 7759,
  "taine": 7760,
  "\u2581images": 7761,
  "\u2581fortement": 7762,
  "\u2581Bor": 7763,
  "\u2581incorporar": 7764,
  "\u2581apartados": 7765,
  "\u2581Georgia": 7766,
  "PC": 7767,
  "\u2581certificat": 7768,
  "\u2581evidente": 7769,
  "\u2581Cap\u00edtulo": 7770,
  "\u2581isra\u00e9lien": 7771,
  "initiative": 7772,
  "fre": 7773,
  "\u2581Miembro": 7774,
  "\u2581effectu\u00e9es": 7775,
  "\u2581mourir": 7776,
  "Para": 7777,
  "\u2581Leone": 7778,
  "\u2581assurance": 7779,
  "\u2581naturel": 7780,
  "\u2581fond\u00e9": 7781,
  "itas": 7782,
  "\u2581disposent": 7783,
  "\u2581acero": 7784,
  "CNU": 7785,
  "\u2581livres": 7786,
  "\u2581ouverture": 7787,
  "\u2581gui": 7788,
  "\u2581pollution": 7789,
  "\u2581culturel": 7790,
  "\u2581jueces": 7791,
  "800": 7792,
  "aron": 7793,
  "\u2581(2005)": 7794,
  "\u2581arr\u00eater": 7795,
  "dici\u00f3n": 7796,
  "impact": 7797,
  "\u258116,": 7798,
  "\u2581vivo": 7799,
  "\u2581espec\u00edfico": 7800,
  "\u2581reglamentos": 7801,
  "\u2581travaillent": 7802,
  "\u2581territorial": 7803,
  "\u2581Aucun": 7804,
  "\u2581pac\u00edfica": 7805,
  "\u2581verdadero": 7806,
  "\u2581reprises": 7807,
  "\u2581eficiente": 7808,
  "\u00f6": 7809,
  "CA": 7810,
  "\u2581incidence": 7811,
  "\u2581ausencia": 7812,
  "\u2581pri\u00e8re": 7813,
  "\u2581tomber": 7814,
  "\u2581quiz\u00e1s": 7815,
  "\u2581arr\u00eat": 7816,
  "consid\u00e9rablement": 7817,
  "\u2581subi": 7818,
  "\u2581fix\u00e9s": 7819,
  "\u2581anciens": 7820,
  "\u2581reproductiva": 7821,
  "\u2581instituant": 7822,
  "\u25811997.": 7823,
  "\u2581compr\u00e9hension": 7824,
  "dri": 7825,
  "\u2581incluyendo": 7826,
  "\u2581vir": 7827,
  "\u2581n\u00e9anmoins": 7828,
  "\u2581aprendizaje": 7829,
  "\u2581Hecho": 7830,
  "\u20ac": 7831,
  "\u2581Points": 7832,
  "\u2581aplican": 7833,
  "\u2581Bi": 7834,
  "\u2581r\u00e9vis\u00e9": 7835,
  "\u00e9taient": 7836,
  "IR": 7837,
  "\u2581lengua": 7838,
  "\u2581biologique": 7839,
  "\u2581hac\u00eda": 7840,
  "\u25812017": 7841,
  "\u2581requises": 7842,
  "rig": 7843,
  "\u2581Date": 7844,
  "\u258132.": 7845,
  "\u2581definir": 7846,
  "\u2581previo": 7847,
  "\u2581satisfacer": 7848,
  "\u2581Serbia": 7849,
  "\u2581conduire": 7850,
  "/2004": 7851,
  "\u2581corrientes": 7852,
  "Ex": 7853,
  "\u2581conveniente": 7854,
  "\u2581actuaci\u00f3n": 7855,
  "\u2581b\u00e1sico": 7856,
  "\u2581fri": 7857,
  "\u2581accrue": 7858,
  "\u2581tendances": 7859,
  "\u2581Euro": 7860,
  "\u2581coordinar": 7861,
  "\u2581insulaires": 7862,
  "\u2581multiples": 7863,
  "\u2581africanos": 7864,
  "\u2581finances": 7865,
  "\u2581ganado": 7866,
  "\u2581mobilisation": 7867,
  "\u2581pi\u00e8ce": 7868,
  "\u0308": 7869,
  "\u2581abuso": 7870,
  "\u2581planta": 7871,
  "\u2581altos": 7872,
  "600": 7873,
  "cien": 7874,
  "\u2581correspond": 7875,
  "\u2581dolor": 7876,
  "bue": 7877,
  "\u2581comporte": 7878,
  "}": 7879,
  "\u2581remo": 7880,
  "\u2581hermanos": 7881,
  "\u2581orientation": 7882,
  "\u2581touch\u00e9s": 7883,
  "\u2581seminario": 7884,
  "\u2581devient": 7885,
  "\u2581caja": 7886,
  "\u2581m\u00e9rite": 7887,
  "\u2581mandats": 7888,
  "\u2581proceder": 7889,
  "date": 7890,
  "\u2581dar\u00e1": 7891,
  "Mo": 7892,
  "\u2581leer": 7893,
  "\u2581limitado": 7894,
  "\u2581usuario": 7895,
  "BS": 7896,
  "ores": 7897,
  "inc": 7898,
  "\u2581toca": 7899,
  "\u2581CN": 7900,
  "\u2581droite": 7901,
  "\u258102": 7902,
  "troisi\u00e8me": 7903,
  "Il": 7904,
  "\u2581ventajas": 7905,
  "\u2581cuba": 7906,
  "Vi": 7907,
  "\u2581gen": 7908,
  "\u2581utilizarse": 7909,
  "\u2581proportion": 7910,
  "\u2581v\u00eddeo": 7911,
  "\u2581actif": 7912,
  "\u2581orientale": 7913,
  "zi": 7914,
  "\u2581vosotros": 7915,
  "\u2581chant": 7916,
  "\u2581supprimer": 7917,
  "\u2581apropiadas": 7918,
  "00.000": 7919,
  "400": 7920,
  "\u2581revenir": 7921,
  "\u2581arte": 7922,
  "organisations": 7923,
  "nza": 7924,
  "\u2581R\u00e9solution": 7925,
  "\u2581positiva": 7926,
  "/2005": 7927,
  "\u2581frontera": 7928,
  "EC": 7929,
  "\u2581espa\u00f1ol": 7930,
  "\u2581posteriormente": 7931,
  "ologie": 7932,
  "\u2581avocat": 7933,
  "\u2581pension": 7934,
  "\u2581Suite": 7935,
  "\u2581appareils": 7936,
  "\u2581disparition": 7937,
  "\u2581d\u00e9faut": 7938,
  "\u2581tenus": 7939,
  "\u2581cartas": 7940,
  "arrive": 7941,
  "\u2581exclusivamente": 7942,
  "ssez": 7943,
  "\u2581alcanzado": 7944,
  "ifica": 7945,
  "mbre": 7946,
  "/22": 7947,
  "\u2581sent": 7948,
  "\u2581asentamiento": 7949,
  "\u2581requisito": 7950,
  "\u2581distinction": 7951,
  "\u2581restaura": 7952,
  "\u2581subventions": 7953,
  "\u258180%": 7954,
  "rit": 7955,
  "cueil": 7956,
  ".6": 7957,
  "\u2581regarder": 7958,
  "\u2581l\u00e9g\u00e8res": 7959,
  "rick": 7960,
  "\u2581concert": 7961,
  "cap": 7962,
  "alimentation": 7963,
  "\u2581aprobados": 7964,
  "sin": 7965,
  "\u2581complexe": 7966,
  "\u2581solicita": 7967,
  "\u2581reconstrucci\u00f3n": 7968,
  "\u2581105": 7969,
  "\u2581cr\u00e9\u00e9s": 7970,
  "\u258119,": 7971,
  "lum": 7972,
  "\u2581futures": 7973,
  "\u2581Familia": 7974,
  "\u2581reclamaci\u00f3n": 7975,
  "\u25811986": 7976,
  "CS": 7977,
  "gg": 7978,
  "\u2581Page": 7979,
  "\u2581CES": 7980,
  "\u2581soldados": 7981,
  "\u2581urgencia": 7982,
  "\u2581pr\u00e9ciser": 7983,
  "\u2581pot": 7984,
  "rigina": 7985,
  "\u2581imposible": 7986,
  "\u2581razonable": 7987,
  "\u2581voies": 7988,
  "Commission": 7989,
  "\u2581cita": 7990,
  "\u2581conjointement": 7991,
  "hy": 7992,
  "\u2581administrativo": 7993,
  "\u2581exp\u00e9riences": 7994,
  "\u2581Refugiados": 7995,
  "\u2581explica": 7996,
  "\u2581agriculture": 7997,
  "\u2581gratuita": 7998,
  "\u2581positive": 7999,
  "\u2581parcial": 8000,
  "\u2581Asesor": 8001,
  "\u2581esp\u00e8re": 8002,
  "\u2581mur": 8003,
  "\u25814)": 8004,
  "\u2581intentar": 8005,
  "\u00e9mo": 8006,
  "Bissau": 8007,
  "\u258140%": 8008,
  "tenido": 8009,
  "\u2581indic\u00f3": 8010,
  "\u00e9li": 8011,
  "\u2581(4": 8012,
  "\u2581Mozambique": 8013,
  "\u2581proposer": 8014,
  "comi": 8015,
  "\u2581conna\u00eet": 8016,
  "\u00e9vi": 8017,
  "\u2581b\u00e9n\u00e9ficient": 8018,
  "\u2581enlace": 8019,
  "\u2581achats": 8020,
  "\u2581cer": 8021,
  "EL": 8022,
  "\u2581130": 8023,
  "\u2581balance": 8024,
  "\u0107": 8025,
  "\u2581voulue": 8026,
  "\u2581pecado": 8027,
  "\u2581breve": 8028,
  "\u2581Iniciativa": 8029,
  "gna": 8030,
  "\u2581d\u00e9couvrir": 8031,
  "\u2581reafirma": 8032,
  "\u2581fondamental": 8033,
  "\u2581Maria": 8034,
  "\u2581mencionar": 8035,
  "8%": 8036,
  "rat": 8037,
  "\u2581Kong": 8038,
  "\u2581d\u00e9pit": 8039,
  "\u2581apropiado": 8040,
  "\u2581se\u00f1al": 8041,
  "\u2581consid\u00e9r\u00e9s": 8042,
  "\u2581Bur": 8043,
  "\u2581religieux": 8044,
  "\u2581trou": 8045,
  "\u2581pac\u00edfico": 8046,
  "\u2581religieuses": 8047,
  "\u2581habido": 8048,
  "pal": 8049,
  "\u2581r\u00e9gimes": 8050,
  "\u2581Group": 8051,
  "\u2581industriales": 8052,
  "gri": 8053,
  "\u2581participent": 8054,
  "\u2581Muchos": 8055,
  "\u2581conocido": 8056,
  "rito": 8057,
  "\u2581remplacement": 8058,
  "\u2581z": 8059,
  "\u2581Chili": 8060,
  "CD": 8061,
  "gy": 8062,
  "\u2581construir": 8063,
  "III": 8064,
  "\u2581Congr\u00e8s": 8065,
  "\u2581refleja": 8066,
  "\u2581potable": 8067,
  "deuxi\u00e8me": 8068,
  "\u00e1l": 8069,
  "nor": 8070,
  "fait": 8071,
  "culo": 8072,
  "\u2581nourriture": 8073,
  "\u2581negocio": 8074,
  "\u2581coherencia": 8075,
  "\u2581Bonne": 8076,
  "ase": 8077,
  "\u2581puerto": 8078,
  "Ouest": 8079,
  "\u2581(5": 8080,
  "\u2581refus": 8081,
  "\u2581ar": 8082,
  "plica": 8083,
  "\u2581coste": 8084,
  "\u2581consider\u00f3": 8085,
  "ATIONS": 8086,
  "\u2581touchant": 8087,
  "\u2581chiffre": 8088,
  "oubli": 8089,
  "\u2581playa": 8090,
  "\u2581pensions": 8091,
  "\u2581Cinq": 8092,
  "augmentation": 8093,
  "eros": 8094,
  "\u2581d\u00e9c": 8095,
  "9%": 8096,
  "\u2581regresar": 8097,
  "rer": 8098,
  "divi": 8099,
  "\u2581Prix": 8100,
  "\u2581arme": 8101,
  "FC": 8102,
  "\u2581officielle": 8103,
  "\u2581agenda": 8104,
  "\u2581Ger": 8105,
  "\u2581externa": 8106,
  "\u2581Daniel": 8107,
  "\u2581ext\u00e9rieure": 8108,
  "uit": 8109,
  "\u2581inhumain": 8110,
  "\u2581l\u00e9gislatif": 8111,
  "\u2581educa": 8112,
  "\u2581ban": 8113,
  "\u2581considerado": 8114,
  "\u2581triste": 8115,
  "tie": 8116,
  "spe": 8117,
  "ssa": 8118,
  "\u2581Objetivos": 8119,
  "\u2581Agence": 8120,
  "\u2581consideran": 8121,
  "\u2581har\u00eda": 8122,
  "\u2581MI": 8123,
  "\u2581hoteles": 8124,
  "\u2581Ur": 8125,
  "\u00e9ni": 8126,
  "\u2581il\u00edcita": 8127,
  "\u2581101": 8128,
  "\u2581Etiop\u00eda": 8129,
  "\u2581acheter": 8130,
  "\u2581dites": 8131,
  "\u2581Max": 8132,
  "\u00c9ternel": 8133,
  "\u2581d\u00e9marche": 8134,
  "\u2581substance": 8135,
  "\u2581dirige": 8136,
  "\u2581anuncios": 8137,
  "bus": 8138,
  "\u2581cobertura": 8139,
  "Institut": 8140,
  "\u2581Tur": 8141,
  "\u258133.": 8142,
  "\u2581velocidad": 8143,
  "\u2581declar\u00f3": 8144,
  "\u2581migrations": 8145,
  "\u2581\u00e9troitement": 8146,
  "\u2581arbitraire": 8147,
  "\u2581Espero": 8148,
  "\u2581effectu\u00e9s": 8149,
  "\u2581o\u00eddo": 8150,
  "\u2581plazos": 8151,
  "/28": 8152,
  "\u2581inclus": 8153,
  "\u2581convenios": 8154,
  "\u2581primordial": 8155,
  "\u2581accompli": 8156,
  "\u2581mostrar": 8157,
  "\u2581Coop\u00e9ration": 8158,
  "\u2581duquel": 8159,
  "extension": 8160,
  "\u2581intelectual": 8161,
  "\u2581d\u00e9finies": 8162,
  "\u2581allait": 8163,
  "\u2581b\u00e1sicas": 8164,
  "\u2581culturelles": 8165,
  "\u2581Bulgaria": 8166,
  "\u2581campa\u00f1as": 8167,
  "\u2581vit": 8168,
  "\u2581tratando": 8169,
  "fin": 8170,
  "\u2581p\u00e9riodiques": 8171,
  "\u2581guide": 8172,
  "\u2581llam": 8173,
  "\u2581computa": 8174,
  "\u2581conviction": 8175,
  "\u2581Interior": 8176,
  "lui": 8177,
  "\u2581(2000)": 8178,
  "\u2581soumises": 8179,
  "\u2581sp\u00e9cialement": 8180,
  "\u2581clef": 8181,
  "\u2581m\u00ednima": 8182,
  "\u2581Vicepresidente": 8183,
  "aza": 8184,
  "abilit\u00e9": 8185,
  "\u2581pages": 8186,
  "dent": 8187,
  "\u2581necesitamos": 8188,
  "\u2581offres": 8189,
  "\u2581initiale": 8190,
  "WP": 8191,
  "\u2581diff\u00e9rences": 8192,
  "\u2581suya": 8193,
  "\u2581aplicarse": 8194,
  "\u2581maritime": 8195,
  "/27": 8196,
  "\u2581revisar": 8197,
  "\u2581cometidos": 8198,
  "\u00ae": 8199,
  "\u2581cumplan": 8200,
  "\u2581enseignements": 8201,
  "\u2581boca": 8202,
  "\u2581b\u00e2timent": 8203,
  "\u2581formulation": 8204,
  "ija": 8205,
  "\u2581demi": 8206,
  "\u2581suficientemente": 8207,
  "rain": 8208,
  "\u2581subprograma": 8209,
  "\u2581introducir": 8210,
  "/19": 8211,
  "cita": 8212,
  "nto": 8213,
  "\u2581Dado": 8214,
  "\u2581Aide": 8215,
  "\u2581dispara": 8216,
  "\u2581exemples": 8217,
  "\u2581limit\u00e9": 8218,
  "\u2581\u00c1": 8219,
  "\u2581religiosas": 8220,
  "\u2581rencontrer": 8221,
  "\u2581turismo": 8222,
  "it\u00e9s": 8223,
  "\u2581dot\u00e9s": 8224,
  "&": 8225,
  "\u258117,": 8226,
  "\u2581audit": 8227,
  "\u2581sp\u00e9cialistes": 8228,
  "o\u00f9": 8229,
  "UA": 8230,
  "affaires": 8231,
  "5.": 8232,
  "\u2581C\u00f4te": 8233,
  "\u2581Malta": 8234,
  "\u2581enemigo": 8235,
  "\u2581positivo": 8236,
  "\u2581llega": 8237,
  "\u2581efectivamente": 8238,
  "\u2581coll": 8239,
  "\u2581gratuito": 8240,
  "\u2581voluntarias": 8241,
  "\u2581Barcelona": 8242,
  "\u2581departamentos": 8243,
  "dona": 8244,
  "\u2581essentielles": 8245,
  "bb": 8246,
  "Ar": 8247,
  "\u2581location": 8248,
  "\u2581r\u00e9duit": 8249,
  "como": 8250,
  "\u2581organizado": 8251,
  "ski": 8252,
  "\u25811980": 8253,
  "\u2581firmado": 8254,
  "\u2581sitios": 8255,
  "\u2581rencontr\u00e9": 8256,
  "\u2581IP": 8257,
  "\u258118,": 8258,
  "ath": 8259,
  "\u25811994.": 8260,
  "\u2581signe": 8261,
  "OL": 8262,
  "vor": 8263,
  "gu\u00e9": 8264,
  "\u2581europeas": 8265,
  "\u2581enti\u00e8re": 8266,
  "\u2581restructuration": 8267,
  "\u2581video": 8268,
  "\u2581regular": 8269,
  "ram": 8270,
  "OIT": 8271,
  "\u2581fr\u00e8res": 8272,
  "verso": 8273,
  "obtenir": 8274,
  "pir": 8275,
  "\u2581scolaires": 8276,
  "\u2581Principal": 8277,
  "\u2581Hungr\u00eda": 8278,
  "fund": 8279,
  "oma": 8280,
  "\u2581Control": 8281,
  "\u2581distance": 8282,
  "\u2581marido": 8283,
  "bin": 8284,
  "\u2581express\u00e9ment": 8285,
  "\u2581Per\u00fa": 8286,
  "\u2581coh\u00e9rence": 8287,
  "\u2581aquel": 8288,
  "\u2581maternelle": 8289,
  "\u2581int\u00e9ress\u00e9es": 8290,
  ".13": 8291,
  "\u2581fonctionnaire": 8292,
  "\u2581Ana": 8293,
  "\u2581tiempos": 8294,
  "\u2581>": 8295,
  "\u2581Nadie": 8296,
  "\u2581Ge": 8297,
  "\u2581guarda": 8298,
  "\u2581exprimer": 8299,
  "ttes": 8300,
  "\u2581programmation": 8301,
  "ike": 8302,
  "\u2581proximit\u00e9": 8303,
  "\u2581issus": 8304,
  "\u2581paiements": 8305,
  "lado": 8306,
  "Espagne": 8307,
  "\u2581cumplido": 8308,
  "\u2581dejado": 8309,
  "\u2581mari\u00e9": 8310,
  "\u2581incombe": 8311,
  "ator": 8312,
  "continuaci\u00f3n": 8313,
  "vig": 8314,
  "\u2581inclure": 8315,
  "\u2581f\u00e9minine": 8316,
  "\u2581condenado": 8317,
  "\u25812013.": 8318,
  "taire": 8319,
  "bitat": 8320,
  "\u2581venga": 8321,
  "v\u00eda": 8322,
  "\u2581librement": 8323,
  "Cu\u00e1nto": 8324,
  "\u2581Rap": 8325,
  "approche": 8326,
  "ford": 8327,
  "\u2581abusos": 8328,
  "\u2581debo": 8329,
  "venu": 8330,
  "\u2581erradicaci\u00f3n": 8331,
  "GB": 8332,
  "var": 8333,
  "\u2581sp": 8334,
  "\u2581aplicado": 8335,
  "iber": 8336,
  "\u2581appropri\u00e9s": 8337,
  "Rep\u00fablica": 8338,
  "\u2581Mah": 8339,
  "\u2581realizan": 8340,
  "\u2581faim": 8341,
  "\u2581comprende": 8342,
  "\u00bf": 8343,
  "\u2581consentement": 8344,
  "isti": 8345,
  "\u2581hago": 8346,
  "\u2581ouverts": 8347,
  "\u2581margen": 8348,
  "\u2581%": 8349,
  "\u2581Energ\u00eda": 8350,
  "\u2581lait": 8351,
  "\u2581Abu": 8352,
  "\u2581armonizaci\u00f3n": 8353,
  "rar": 8354,
  "\u2581notion": 8355,
  "\u2581entiendo": 8356,
  "\u2581fixe": 8357,
  "mission": 8358,
  "\u2581d\u00e9crit": 8359,
  "\u2581Fait": 8360,
  "rog": 8361,
  "\u2581hausse": 8362,
  "\u2581distrito": 8363,
  "\u2581rec": 8364,
  "\u2581voulons": 8365,
  "\u2581Tailandia": 8366,
  "expulsion": 8367,
  "\u2581Uganda": 8368,
  "\u2581Ses": 8369,
  "\u2581globales": 8370,
  "\u2581PME": 8371,
  "\u2581remplir": 8372,
  "\u2581acogida": 8373,
  "\u2581procureur": 8374,
  "\u2581usa": 8375,
  "PE": 8376,
  "\u2581conexos": 8377,
  "\u2581retraite": 8378,
  "\u2581ponente": 8379,
  "\u2581concern": 8380,
  "\u2581charges": 8381,
  "\u2581Ha\u00efti": 8382,
  "\u2581intra": 8383,
  "\u2581illicites": 8384,
  "\u2581antidumping": 8385,
  "\u2581Gr\u00e2ce": 8386,
  "gouvernementales": 8387,
  "t\u00e1n": 8388,
  "TO": 8389,
  "\u2581Res": 8390,
  "\u2581decide": 8391,
  "\u2581sexto": 8392,
  "IA": 8393,
  "\u2581expos\u00e9s": 8394,
  "autorisation": 8395,
  "\u2581permitir\u00e1": 8396,
  "ibles": 8397,
  "\u2581visage": 8398,
  "fil": 8399,
  "mine": 8400,
  "\u2581\u00e9stas": 8401,
  "achat": 8402,
  "rent": 8403,
  "plan": 8404,
  "\u2581salvar": 8405,
  "\u2581har\u00e9": 8406,
  "accent": 8407,
  "fini": 8408,
  "\u2581approbation": 8409,
  "\u2581plan\u00e8te": 8410,
  "\u2581coloni": 8411,
  "\u2581alquiler": 8412,
  "\u2581constitucional": 8413,
  "\u2581essay\u00e9": 8414,
  "mientos": 8415,
  "\u2581programaci\u00f3n": 8416,
  "\u2581integrar": 8417,
  "\u2581humanitarias": 8418,
  "9)": 8419,
  "uma": 8420,
  "\u2581llevan": 8421,
  "\u2581pudieran": 8422,
  "\u2581prends": 8423,
  "\u2581beb\u00e9": 8424,
  "\u2581quitter": 8425,
  "\u2581\u00e9nerg\u00e9tique": 8426,
  "\u2581cl\u00e9": 8427,
  "\u2581visent": 8428,
  "\u2581ocupan": 8429,
  "Pr\u00e9sident": 8430,
  "\u2581sucre": 8431,
  "\u2581duradera": 8432,
  "\u2581reconnaissant": 8433,
  "\u2581syrienne": 8434,
  "\u2581facteur": 8435,
  "\u2581viennent": 8436,
  "\u2581Comisario": 8437,
  "\u2581tuviera": 8438,
  "\u2581Membre": 8439,
  "\u2581beneficiarios": 8440,
  "\u2581\u00e9lectroniques": 8441,
  "\u2581permitido": 8442,
  "\u2581dumping": 8443,
  "\u2581pacifiques": 8444,
  "\u2581planos": 8445,
  ".15": 8446,
  "\u2581description": 8447,
  "\u2581correcta": 8448,
  "\u2581excepto": 8449,
  "\u2581Rev": 8450,
  "stitu": 8451,
  "\u2581viable": 8452,
  "\u2581oradores": 8453,
  "\u2581Premi\u00e8re": 8454,
  "\u2581oro": 8455,
  "teurs": 8456,
  "\u2581attaques": 8457,
  "UNESCO": 8458,
  "\u2581afecta": 8459,
  "\u2581costa": 8460,
  "\u2581combinaci\u00f3n": 8461,
  "\u2581inf\u00e9rieur": 8462,
  "\u2581jefes": 8463,
  "\u2581carretera": 8464,
  "uf": 8465,
  "\u2581noir": 8466,
  "\u2581piel": 8467,
  "\u2581\u00e9poca": 8468,
  "adresse": 8469,
  "\u2581mat\u00e9riels": 8470,
  "rida": 8471,
  "\u2581gent": 8472,
  "\u2581efectuar": 8473,
  "jos": 8474,
  "\u2581ordinateur": 8475,
  "reestructuraci\u00f3n": 8476,
  "\u2581transformaci\u00f3n": 8477,
  "SO": 8478,
  "\u2581hier": 8479,
  "\u2581informado": 8480,
  "\u2581magistrados": 8481,
  "\u2581pel\u00edcula": 8482,
  "\u2581Supremo": 8483,
  "\u2581r\u00e9daction": 8484,
  "\u2581pr\u00e9cis\u00e9ment": 8485,
  "expression": 8486,
  "\u2581az\u00facar": 8487,
  "\u2581prostitution": 8488,
  "\u2581catastrophe": 8489,
  "mbu": 8490,
  "\u2581certificados": 8491,
  "\u2581p\u00e9trole": 8492,
  "\u2581stup\u00e9fiants": 8493,
  "\u2581lancer": 8494,
  "error": 8495,
  "\u25812018": 8496,
  "\u2581exclusi\u00f3n": 8497,
  "\u2581essayer": 8498,
  "{": 8499,
  "ification": 8500,
  "\u2581supervisar": 8501,
  "\u2581UNA": 8502,
  "bout": 8503,
  "\u2581ancien": 8504,
  "ene": 8505,
  "\u2581Justice": 8506,
  "\u2581m\u00e9dical": 8507,
  "\u2581estaci\u00f3n": 8508,
  "\u2581donnent": 8509,
  "\u2581essentielle": 8510,
  "\u2581r\u00e9insertion": 8511,
  "\u2581r\u00e9clamations": 8512,
  "ON": 8513,
  "\u2581ratifi\u00e9": 8514,
  "abi": 8515,
  "\u2581arm\u00e9": 8516,
  "\u2581(3)": 8517,
  "\u2581compos\u00e9": 8518,
  "\u2581federal": 8519,
  "\u00d1": 8520,
  "\u2581cierta": 8521,
  "62": 8522,
  "\u2581appliqu\u00e9": 8523,
  "\u2581PRO": 8524,
  "\u2581papier": 8525,
  "\u2581cl": 8526,
  "\u2581contacts": 8527,
  "\u2581empresarial": 8528,
  "83": 8529,
  "pes": 8530,
  "\u2581indemnisation": 8531,
  "\u2581visitar": 8532,
  "\u2581asistir": 8533,
  "\u2581Report": 8534,
  "\u2581fixer": 8535,
  "\u2581comenz\u00f3": 8536,
  "\u2581\u00e9gal": 8537,
  "AIEA": 8538,
  "\u2581sigui\u00f3": 8539,
  "\u2581critique": 8540,
  "\u2581pr\u00e9sentent": 8541,
  "\u2581int\u00e9rimaire": 8542,
[...]
